{
  "0": "<|endoftext|>",
  "1": "\u0000",
  "2": "\u0001",
  "3": "\u0002",
  "4": "\u0003",
  "5": "\u0004",
  "6": "\u0005",
  "7": "\u0006",
  "8": "\u0007",
  "9": "\b",
  "10": "\t",
  "11": "\n",
  "12": "\u000b",
  "13": "\f",
  "14": "\r",
  "15": "\u000e",
  "16": "\u000f",
  "17": "\u0010",
  "18": "\u0011",
  "19": "\u0012",
  "20": "\u0013",
  "21": "\u0014",
  "22": "\u0015",
  "23": "\u0016",
  "24": "\u0017",
  "25": "\u0018",
  "26": "\u0019",
  "27": "\u001a",
  "28": "\u001b",
  "29": "\u001c",
  "30": "\u001d",
  "31": "\u001e",
  "32": "\u001f",
  "33": " ",
  "34": "!",
  "35": "\"",
  "36": "#",
  "37": "$",
  "38": "%",
  "39": "&",
  "40": "'",
  "41": "(",
  "42": ")",
  "43": "*",
  "44": "+",
  "45": ",",
  "46": "-",
  "47": ".",
  "48": "/",
  "49": "0",
  "50": "1",
  "51": "2",
  "52": "3",
  "53": "4",
  "54": "5",
  "55": "6",
  "56": "7",
  "57": "8",
  "58": "9",
  "59": ":",
  "60": ";",
  "61": "<",
  "62": "=",
  "63": ">",
  "64": "?",
  "65": "@",
  "66": "A",
  "67": "B",
  "68": "C",
  "69": "D",
  "70": "E",
  "71": "F",
  "72": "G",
  "73": "H",
  "74": "I",
  "75": "J",
  "76": "K",
  "77": "L",
  "78": "M",
  "79": "N",
  "80": "O",
  "81": "P",
  "82": "Q",
  "83": "R",
  "84": "S",
  "85": "T",
  "86": "U",
  "87": "V",
  "88": "W",
  "89": "X",
  "90": "Y",
  "91": "Z",
  "92": "[",
  "93": "\\",
  "94": "]",
  "95": "^",
  "96": "_",
  "97": "`",
  "98": "a",
  "99": "b",
  "100": "c",
  "101": "d",
  "102": "e",
  "103": "f",
  "104": "g",
  "105": "h",
  "106": "i",
  "107": "j",
  "108": "k",
  "109": "l",
  "110": "m",
  "111": "n",
  "112": "o",
  "113": "p",
  "114": "q",
  "115": "r",
  "116": "s",
  "117": "t",
  "118": "u",
  "119": "v",
  "120": "w",
  "121": "x",
  "122": "y",
  "123": "z",
  "124": "{",
  "125": "|",
  "126": "}",
  "127": "~",
  "128": "",
  "129": "",
  "130": "",
  "131": "",
  "132": "",
  "133": "",
  "134": "",
  "135": "",
  "136": "",
  "137": "",
  "138": "",
  "139": "",
  "140": "",
  "141": "",
  "142": "",
  "143": "",
  "144": "",
  "145": "",
  "146": "",
  "147": "",
  "148": "",
  "149": "",
  "150": "",
  "151": "",
  "152": "",
  "153": "",
  "154": "",
  "155": "",
  "156": "",
  "157": "",
  "158": "",
  "159": "",
  "160": "",
  "161": " ",
  "162": "¡",
  "163": "¢",
  "164": "£",
  "165": "¤",
  "166": "¥",
  "167": "¦",
  "168": "§",
  "169": "¨",
  "170": "©",
  "171": "ª",
  "172": "«",
  "173": "¬",
  "174": "­",
  "175": "®",
  "176": "¯",
  "177": "°",
  "178": "±",
  "179": "²",
  "180": "³",
  "181": "´",
  "182": "µ",
  "183": "¶",
  "184": "·",
  "185": "¸",
  "186": "¹",
  "187": "º",
  "188": "»",
  "189": "¼",
  "190": "½",
  "191": "¾",
  "192": "¿",
  "193": "À",
  "194": "Á",
  "195": "Â",
  "196": "Ã",
  "197": "Ä",
  "198": "Å",
  "199": "Æ",
  "200": "Ç",
  "201": "È",
  "202": "É",
  "203": "Ê",
  "204": "Ë",
  "205": "Ì",
  "206": "Í",
  "207": "Î",
  "208": "Ï",
  "209": "Ð",
  "210": "Ñ",
  "211": "Ò",
  "212": "Ó",
  "213": "Ô",
  "214": "Õ",
  "215": "Ö",
  "216": "×",
  "217": "Ø",
  "218": "Ù",
  "219": "Ú",
  "220": "Û",
  "221": "Ü",
  "222": "Ý",
  "223": "Þ",
  "224": "ß",
  "225": "à",
  "226": "á",
  "227": "â",
  "228": "ã",
  "229": "ä",
  "230": "å",
  "231": "æ",
  "232": "ç",
  "233": "è",
  "234": "é",
  "235": "ê",
  "236": "ë",
  "237": "ì",
  "238": "í",
  "239": "î",
  "240": "ï",
  "241": "ð",
  "242": "ñ",
  "243": "ò",
  "244": "ó",
  "245": "ô",
  "246": "õ",
  "247": "ö",
  "248": "÷",
  "249": "ø",
  "250": "ù",
  "251": "ú",
  "252": "û",
  "253": "ü",
  "254": "ý",
  "255": "þ",
  "256": "ÿ",
  "257": " t",
  "258": " a",
  "259": "he",
  "260": "in",
  "261": "re",
  "262": " the",
  "263": "on",
  "264": "er",
  "265": " s",
  "266": " w",
  "267": "at",
  "268": " o",
  "269": "en",
  "270": " c",
  "271": "it",
  "272": "is",
  "273": "an",
  "274": "or",
  "275": " b",
  "276": "es",
  "277": "ed",
  "278": " f",
  "279": "ing",
  "280": " p",
  "281": "ou",
  "282": " an",
  "283": "al",
  "284": " to",
  "285": "ar",
  "286": " m",
  "287": " in",
  "288": " of",
  "289": " h",
  "290": " d",
  "291": "as",
  "292": "â",
  "293": "ic",
  "294": " and",
  "295": " th",
  "296": "le",
  "297": "om",
  "298": "ion",
  "299": "ll",
  "300": "ent",
  "301": " n",
  "302": " l",
  "303": " re",
  "304": "st",
  "305": "ve",
  "306": " e",
  "307": "ly",
  "308": " be",
  "309": " g",
  "310": "ro",
  "311": "id",
  "312": "ac",
  "313": "ut",
  "314": "ot",
  "315": " T",
  "316": " I",
  "317": " that",
  "318": " on",
  "319": "ay",
  "320": " S",
  "321": " is",
  "322": "am",
  "323": "im",
  "324": "et",
  "325": "ad",
  "326": "ow",
  "327": "ig",
  "328": "se",
  "329": " for",
  "330": "â",
  "331": " A",
  "332": "ver",
  "333": "ld",
  "334": "ur",
  "335": "ct",
  "336": " C",
  "337": " u",
  "338": " st",
  "339": " y",
  "340": " it",
  "341": " he",
  "342": "ir",
  "343": "ation",
  "344": "ith",
  "345": " wh",
  "346": " M",
  "347": "ce",
  "348": "ter",
  "349": "ol",
  "350": " we",
  "351": "il",
  "352": " with",
  "353": " as",
  "354": " B",
  "355": "ch",
  "356": "ill",
  "357": "nd",
  "358": " was",
  "359": "ers",
  "360": " P",
  "361": " you",
  "362": "ke",
  "363": " â",
  "364": " con",
  "365": " de",
  "366": " r",
  "367": "if",
  "368": "her",
  "369": "ate",
  "370": " at",
  "371": "ag",
  "372": " W",
  "373": " ha",
  "374": " se",
  "375": " H",
  "376": "ore",
  "377": "ul",
  "378": " pro",
  "379": "pp",
  "380": "ment",
  "381": " 1",
  "382": " D",
  "383": " are",
  "384": "ri",
  "385": "est",
  "386": "us",
  "387": "ist",
  "388": " R",
  "389": " com",
  "390": "and",
  "391": "ain",
  "392": "op",
  "393": " 2",
  "394": " The",
  "395": "igh",
  "396": " (",
  "397": "th",
  "398": "rom",
  "399": "od",
  "400": " ne",
  "401": " F",
  "402": "um",
  "403": "un",
  "404": " ex",
  "405": "â",
  "406": "ab",
  "407": "res",
  "408": " N",
  "409": " not",
  "410": " v",
  "411": "ess",
  "412": " have",
  "413": "ould",
  "414": "ity",
  "415": "em",
  "416": " or",
  "417": "ort",
  "418": " by",
  "419": "os",
  "420": "ant",
  "421": " G",
  "422": " from",
  "423": "ive",
  "424": " al",
  "425": "'s",
  "426": " su",
  "427": "el",
  "428": "art",
  "429": "oc",
  "430": " L",
  "431": " sh",
  "432": " this",
  "433": "nt",
  "434": "qu",
  "435": "ight",
  "436": "ust",
  "437": "00",
  "438": "pe",
  "439": " le",
  "440": "ies",
  "441": "end",
  "442": " ch",
  "443": " sa",
  "444": "out",
  "445": " E",
  "446": "The",
  "447": " ab",
  "448": "ie",
  "449": "ack",
  "450": "all",
  "451": " â",
  "452": "red",
  "453": " J",
  "454": " has",
  "455": " pl",
  "456": "ally",
  "457": " go",
  "458": "ard",
  "459": "ap",
  "460": "ear",
  "461": " his",
  "462": "iv",
  "463": "ome",
  "464": "gh",
  "465": "ost",
  "466": "ast",
  "467": "our",
  "468": " O",
  "469": " tr",
  "470": " j",
  "471": "ak",
  "472": " wor",
  "473": "ud",
  "474": " they",
  "475": " do",
  "476": " but",
  "477": " said",
  "478": "ge",
  "479": " can",
  "480": " will",
  "481": "rou",
  "482": " whe",
  "483": " U",
  "484": " k",
  "485": "ok",
  "486": "ich",
  "487": " all",
  "488": " who",
  "489": "ide",
  "490": " \"",
  "491": "ame",
  "492": " int",
  "493": "ther",
  "494": "ans",
  "495": " out",
  "496": " their",
  "497": "ff",
  "498": "ial",
  "499": "ect",
  "500": "ong",
  "501": "pl",
  "502": "ice",
  "503": "ure",
  "504": "pt",
  "505": " more",
  "506": "age",
  "507": "ions",
  "508": "ous",
  "509": "ike",
  "510": "one",
  "511": "act",
  "512": " me",
  "513": " up",
  "514": "ine",
  "515": " ad",
  "516": " about",
  "517": "ra",
  "518": "ime",
  "519": "ated",
  "520": " were",
  "521": " one",
  "522": "ber",
  "523": "og",
  "524": " us",
  "525": " so",
  "526": "ep",
  "527": " had",
  "528": "ub",
  "529": "are",
  "530": "ia",
  "531": "cc",
  "532": "ue",
  "533": " 20",
  "534": " K",
  "535": " cl",
  "536": " would",
  "537": " im",
  "538": "ind",
  "539": "iz",
  "540": " ag",
  "541": " which",
  "542": "ake",
  "543": "very",
  "544": " te",
  "545": " cont",
  "546": " un",
  "547": " off",
  "548": " been",
  "549": " comp",
  "550": " St",
  "551": "so",
  "552": "au",
  "553": " year",
  "554": "per",
  "555": " Th",
  "556": " en",
  "557": "ign",
  "558": "ew",
  "559": "ip",
  "560": "ary",
  "561": "ace",
  "562": " like",
  "563": "ook",
  "564": "ven",
  "565": "ere",
  "566": "ays",
  "567": " man",
  "568": " inc",
  "569": "ry",
  "570": " pe",
  "571": "ose",
  "572": "able",
  "573": "ite",
  "574": " res",
  "575": " per",
  "576": "ord",
  "577": "ass",
  "578": " sp",
  "579": "mer",
  "580": " other",
  "581": " In",
  "582": " some",
  "583": "ile",
  "584": "ire",
  "585": " 201",
  "586": "ib",
  "587": "ople",
  "588": "ence",
  "589": "ical",
  "590": " new",
  "591": " there",
  "592": " over",
  "593": "ations",
  "594": "ks",
  "595": "ult",
  "596": " dis",
  "597": "ress",
  "598": " also",
  "599": "own",
  "600": " than",
  "601": " ar",
  "602": "ough",
  "603": " bec",
  "604": "int",
  "605": " them",
  "606": "ance",
  "607": "ail",
  "608": "port",
  "609": " when",
  "610": " app",
  "611": "ond",
  "612": "ount",
  "613": "ru",
  "614": " your",
  "615": "ree",
  "616": " part",
  "617": " people",
  "618": " what",
  "619": " qu",
  "620": "fter",
  "621": "orm",
  "622": " sc",
  "623": "av",
  "624": " Ch",
  "625": " Y",
  "626": " just",
  "627": "ase",
  "628": " any",
  "629": " kn",
  "630": " 3",
  "631": " its",
  "632": " time",
  "633": "ach",
  "634": " her",
  "635": " It",
  "636": " V",
  "637": "reat",
  "638": " if",
  "639": " my",
  "640": "ens",
  "641": " rec",
  "642": "ick",
  "643": " get",
  "644": "vel",
  "645": ".â",
  "646": " into",
  "647": "ound",
  "648": "irst",
  "649": " tw",
  "650": " no",
  "651": "ian",
  "652": " work",
  "653": "ction",
  "654": "du",
  "655": " -",
  "656": "ings",
  "657": "ory",
  "658": "lic",
  "659": " play",
  "660": " our",
  "661": "ition",
  "662": "ident",
  "663": "ors",
  "664": " pre",
  "665": "ob",
  "666": "ang",
  "667": "ove",
  "668": "ink",
  "669": "ade",
  "670": "ish",
  "671": "ause",
  "672": "wn",
  "673": "itt",
  "674": "ark",
  "675": "ates",
  "676": "amp",
  "677": " she",
  "678": " ro",
  "679": ",â",
  "680": " co",
  "681": "vers",
  "682": " pol",
  "683": " first",
  "684": " after",
  "685": " how",
  "686": " could",
  "687": "ne",
  "688": "ious",
  "689": "nder",
  "690": " acc",
  "691": " He",
  "692": "ild",
  "693": "'t",
  "694": " 19",
  "695": " him",
  "696": " po",
  "697": "aw",
  "698": "ons",
  "699": " att",
  "700": "hed",
  "701": " fe",
  "702": " only",
  "703": " pr",
  "704": "ict",
  "705": " two",
  "706": "hing",
  "707": "we",
  "708": "â",
  "709": "ov",
  "710": " ser",
  "711": " spe",
  "712": "form",
  "713": " comm",
  "714": ".\"",
  "715": " bl",
  "716": " bet",
  "717": " act",
  "718": "ning",
  "719": " dec",
  "720": " back",
  "721": "ft",
  "722": "te",
  "723": "ces",
  "724": " most",
  "725": "oy",
  "726": "ood",
  "727": " 4",
  "728": " am",
  "729": " did",
  "730": "ck",
  "731": " again",
  "732": "iff",
  "733": "rough",
  "734": "round",
  "735": "ater",
  "736": " under",
  "737": " want",
  "738": "day",
  "739": "ual",
  "740": " â",
  "741": "ise",
  "742": " â",
  "743": "rit",
  "744": " years",
  "745": "sel",
  "746": "ull",
  "747": "..",
  "748": "ents",
  "749": " des",
  "750": " because",
  "751": " now",
  "752": ",\"",
  "753": "tern",
  "754": " even",
  "755": " cons",
  "756": "lud",
  "757": " know",
  "758": "ublic",
  "759": "iss",
  "760": " inv",
  "761": " need",
  "762": "ec",
  "763": "man",
  "764": "old",
  "765": " sec",
  "766": " see",
  "767": " add",
  "768": " ind",
  "769": " We",
  "770": "ments",
  "771": " every",
  "772": "ced",
  "773": " $",
  "774": "fore",
  "775": "uch",
  "776": " 5",
  "777": "urn",
  "778": " make",
  "779": " supp",
  "780": " Un",
  "781": " em",
  "782": "pect",
  "783": " these",
  "784": "oll",
  "785": "ject",
  "786": "ock",
  "787": " where",
  "788": " look",
  "789": "ational",
  "790": "ump",
  "791": "In",
  "792": "ason",
  "793": " bu",
  "794": "vern",
  "795": "iew",
  "796": " don",
  "797": " way",
  "798": "xt",
  "799": " right",
  "800": " And",
  "801": "ily",
  "802": " being",
  "803": "Th",
  "804": "ng",
  "805": " ev",
  "806": "les",
  "807": " may",
  "808": "ating",
  "809": "oss",
  "810": " Tr",
  "811": " diff",
  "812": " many",
  "813": " rel",
  "814": " rem",
  "815": " then",
  "816": "row",
  "817": "lect",
  "818": " def",
  "819": "ased",
  "820": " call",
  "821": "ath",
  "822": " think",
  "823": "ied",
  "824": " But",
  "825": "meric",
  "826": "aking",
  "827": " [",
  "828": "ited",
  "829": " last",
  "830": " includ",
  "831": "ont",
  "832": " imp",
  "833": " say",
  "834": " through",
  "835": " should",
  "836": " those",
  "837": "ower",
  "838": "ific",
  "839": "other",
  "840": ").",
  "841": "uring",
  "842": " reg",
  "843": " fl",
  "844": " very",
  "845": "ell",
  "846": " pres",
  "847": "rib",
  "848": " sy",
  "849": " much",
  "850": "arg",
  "851": "ities",
  "852": " br",
  "853": " show",
  "854": " state",
  "855": "ting",
  "856": "ss",
  "857": "hen",
  "858": " This",
  "859": " bel",
  "860": "ved",
  "861": " ph",
  "862": "ty",
  "863": " well",
  "864": "ative",
  "865": "ics",
  "866": "ange",
  "867": " Wh",
  "868": " end",
  "869": " does",
  "870": "und",
  "871": " own",
  "872": " down",
  "873": " ass",
  "874": "als",
  "875": " 200",
  "876": "com",
  "877": "ters",
  "878": "arly",
  "879": "oth",
  "880": " count",
  "881": " mon",
  "882": " Americ",
  "883": " use",
  "884": "ince",
  "885": "ward",
  "886": "omet",
  "887": " before",
  "888": " long",
  "889": " team",
  "890": "up",
  "891": " start",
  "892": "gr",
  "893": " New",
  "894": "ues",
  "895": " govern",
  "896": " report",
  "897": " ke",
  "898": "ible",
  "899": "olog",
  "900": "ener",
  "901": "ert",
  "902": "ife",
  "903": " made",
  "904": "ren",
  "905": "ble",
  "906": " fin",
  "907": "--",
  "908": "oun",
  "909": "ix",
  "910": "It",
  "911": " sm",
  "912": " world",
  "913": " such",
  "914": " game",
  "915": "erson",
  "916": " going",
  "917": "),",
  "918": " sub",
  "919": "000",
  "920": " good",
  "921": "ful",
  "922": " hel",
  "923": "ism",
  "924": "ek",
  "925": " ac",
  "926": " against",
  "927": " 6",
  "928": "ility",
  "929": "ork",
  "930": "ually",
  "931": " gu",
  "932": " point",
  "933": " sur",
  "934": " stud",
  "935": " eff",
  "936": "ts",
  "937": "ys",
  "938": "gan",
  "939": " ent",
  "940": "its",
  "941": "ists",
  "942": "ier",
  "943": " still",
  "944": " set",
  "945": "ars",
  "946": "ax",
  "947": "ween",
  "948": " lead",
  "949": " help",
  "950": " gr",
  "951": "imes",
  "952": "roup",
  "953": " says",
  "954": "ving",
  "955": " col",
  "956": " min",
  "957": "ef",
  "958": "stem",
  "959": " ob",
  "960": "â",
  "961": "io",
  "962": " while",
  "963": "alk",
  "964": "ms",
  "965": "illion",
  "966": " produ",
  "967": "self",
  "968": "ank",
  "969": " sim",
  "970": " though",
  "971": " between",
  "972": "cy",
  "973": " take",
  "974": " same",
  "975": "cess",
  "976": "ah",
  "977": " differe",
  "978": "ollow",
  "979": " num",
  "980": " str",
  "981": "ures",
  "982": "ames",
  "983": " conf",
  "984": " high",
  "985": " inter",
  "986": "arch",
  "987": "ever",
  "988": " cr",
  "989": " op",
  "990": "air",
  "991": " inst",
  "992": "uss",
  "993": " sign",
  "994": " Re",
  "995": "atch",
  "996": " offic",
  "997": "ool",
  "998": "led",
  "999": " law",
  "1000": "hip",
  "1001": " disc",
  "1002": "cent",
  "1003": "gg",
  "1004": "ner",
  "1005": " prov",
  "1006": "way",
  "1007": " ins",
  "1008": " ret",
  "1009": "read",
  "1010": "hes",
  "1011": "any",
  "1012": "velop",
  "1013": " government",
  "1014": " somet",
  "1015": " ed",
  "1016": "land",
  "1017": "ution",
  "1018": " med",
  "1019": "We",
  "1020": " three",
  "1021": " ref",
  "1022": "ee",
  "1023": " ter",
  "1024": " trans",
  "1025": " found",
  "1026": "ouse",
  "1027": " run",
  "1028": " around",
  "1029": " here",
  "1030": " 10",
  "1031": " real",
  "1032": " Al",
  "1033": " used",
  "1034": "oot",
  "1035": " mem",
  "1036": "ather",
  "1037": " You",
  "1038": "ave",
  "1039": "ives",
  "1040": "az",
  "1041": "ale",
  "1042": "con",
  "1043": " exp",
  "1044": " system",
  "1045": "alth",
  "1046": "ets",
  "1047": " sl",
  "1048": "ci",
  "1049": " group",
  "1050": "cept",
  "1051": " Ar",
  "1052": " 7",
  "1053": " really",
  "1054": "ves",
  "1055": " support",
  "1056": " cour",
  "1057": "ense",
  "1058": " Trump",
  "1059": " hand",
  "1060": "ins",
  "1061": " great",
  "1062": "ph",
  "1063": " wom",
  "1064": " mod",
  "1065": " public",
  "1066": " fam",
  "1067": "ying",
  "1068": " spec",
  "1069": " ext",
  "1070": " cap",
  "1071": " cur",
  "1072": " car",
  "1073": "ern",
  "1074": " read",
  "1075": " They",
  "1076": " fact",
  "1077": "pr",
  "1078": "ision",
  "1079": " Cl",
  "1080": "ton",
  "1081": " find",
  "1082": " day",
  "1083": "oh",
  "1084": " exper",
  "1085": " fr",
  "1086": " happ",
  "1087": "ular",
  "1088": "aj",
  "1089": " both",
  "1090": " month",
  "1091": "irect",
  "1092": " during",
  "1093": " Com",
  "1094": " det",
  "1095": "ines",
  "1096": " rep",
  "1097": "ices",
  "1098": " Is",
  "1099": " Sh",
  "1100": " told",
  "1101": " develop",
  "1102": "uth",
  "1103": " big",
  "1104": "ered",
  "1105": " follow",
  "1106": "the",
  "1107": " As",
  "1108": " iss",
  "1109": " cre",
  "1110": "ex",
  "1111": " person",
  "1112": "ivers",
  "1113": "min",
  "1114": " since",
  "1115": " cent",
  "1116": "ording",
  "1117": " war",
  "1118": "akes",
  "1119": " 0",
  "1120": " week",
  "1121": "ared",
  "1122": "ric",
  "1123": "ages",
  "1124": " 8",
  "1125": " few",
  "1126": "ically",
  "1127": " polit",
  "1128": " belie",
  "1129": "med",
  "1130": ".[",
  "1131": " Le",
  "1132": " leg",
  "1133": " gener",
  "1134": "ash",
  "1135": "anc",
  "1136": " expl",
  "1137": " lot",
  "1138": "bers",
  "1139": " contin",
  "1140": "ention",
  "1141": "ness",
  "1142": " prot",
  "1143": "get",
  "1144": "iet",
  "1145": " too",
  "1146": "der",
  "1147": " put",
  "1148": "rent",
  "1149": " soc",
  "1150": "orn",
  "1151": " If",
  "1152": "Wh",
  "1153": " requ",
  "1154": " opp",
  "1155": " another",
  "1156": " 9",
  "1157": " resp",
  "1158": " something",
  "1159": "ized",
  "1160": " different",
  "1161": "chool",
  "1162": "att",
  "1163": " cle",
  "1164": " inf",
  "1165": " pass",
  "1166": " loc",
  "1167": " second",
  "1168": "ata",
  "1169": " life",
  "1170": " plan",
  "1171": "view",
  "1172": " met",
  "1173": " De",
  "1174": " invest",
  "1175": "ody",
  "1176": " far",
  "1177": " fil",
  "1178": "ross",
  "1179": " head",
  "1180": " child",
  "1181": " char",
  "1182": "iness",
  "1183": "thing",
  "1184": "ience",
  "1185": " che",
  "1186": " commun",
  "1187": "erest",
  "1188": "ik",
  "1189": " rele",
  "1190": " power",
  "1191": " never",
  "1192": " things",
  "1193": " bus",
  "1194": "arl",
  "1195": " poss",
  "1196": "ize",
  "1197": " camp",
  "1198": " bo",
  "1199": "ield",
  "1200": "uc",
  "1201": " dep",
  "1202": "ute",
  "1203": "ret",
  "1204": "ants",
  "1205": " might",
  "1206": " adv",
  "1207": "ient",
  "1208": " ask",
  "1209": " got",
  "1210": " each",
  "1211": " quest",
  "1212": " â",
  "1213": " vot",
  "1214": "This",
  "1215": " art",
  "1216": " best",
  "1217": " next",
  "1218": " For",
  "1219": " mark",
  "1220": "cl",
  "1221": " Fr",
  "1222": " dem",
  "1223": " allow",
  "1224": " cor",
  "1225": " come",
  "1226": "20",
  "1227": " '",
  "1228": " That",
  "1229": " Se",
  "1230": " seem",
  "1231": "ittle",
  "1232": " feel",
  "1233": "nce",
  "1234": " percent",
  "1235": " An",
  "1236": " wr",
  "1237": "ital",
  "1238": "son",
  "1239": "ten",
  "1240": " incre",
  "1241": " post",
  "1242": "rat",
  "1243": "ple",
  "1244": "ug",
  "1245": " home",
  "1246": " .",
  "1247": " av",
  "1248": " dist",
  "1249": " open",
  "1250": "erv",
  "1251": " care",
  "1252": "gram",
  "1253": "ired",
  "1254": " US",
  "1255": " contro",
  "1256": "less",
  "1257": " pri",
  "1258": " hard",
  "1259": "chn",
  "1260": " Rep",
  "1261": "osed",
  "1262": " result",
  "1263": " Pro",
  "1264": " season",
  "1265": "ral",
  "1266": " direct",
  "1267": "__",
  "1268": " Bl",
  "1269": "ately",
  "1270": " hum",
  "1271": " place",
  "1272": "gy",
  "1273": " number",
  "1274": " build",
  "1275": " without",
  "1276": " four",
  "1277": " inform",
  "1278": " including",
  "1279": "co",
  "1280": " top",
  "1281": "ama",
  "1282": " million",
  "1283": "conom",
  "1284": " import",
  "1285": " comple",
  "1286": " ide",
  "1287": "riend",
  "1288": " recent",
  "1289": "aim",
  "1290": "line",
  "1291": "ably",
  "1292": " proble",
  "1293": " tri",
  "1294": " let",
  "1295": " country",
  "1296": "ways",
  "1297": "ished",
  "1298": "But",
  "1299": " stand",
  "1300": " el",
  "1301": "arn",
  "1302": " better",
  "1303": "ained",
  "1304": " gl",
  "1305": "ead",
  "1306": " interest",
  "1307": "tt",
  "1308": "ration",
  "1309": " less",
  "1310": "oney",
  "1311": "ract",
  "1312": " mov",
  "1313": "ling",
  "1314": " Ind",
  "1315": " partic",
  "1316": " attack",
  "1317": " little",
  "1318": " bro",
  "1319": "app",
  "1320": " appro",
  "1321": " beh",
  "1322": " mil",
  "1323": " called",
  "1324": " didn",
  "1325": " turn",
  "1326": " rest",
  "1327": " dr",
  "1328": " case",
  "1329": "ised",
  "1330": "ains",
  "1331": "ode",
  "1332": " pop",
  "1333": " move",
  "1334": "rem",
  "1335": " effect",
  "1336": " pay",
  "1337": "ajor",
  "1338": " Z",
  "1339": " full",
  "1340": "ina",
  "1341": " keep",
  "1342": " left",
  "1343": " prev",
  "1344": " ann",
  "1345": " serv",
  "1346": " news",
  "1347": "ency",
  "1348": " conc",
  "1349": "10",
  "1350": " program",
  "1351": "uro",
  "1352": "ann",
  "1353": " There",
  "1354": "ering",
  "1355": "ature",
  "1356": " --",
  "1357": " 12",
  "1358": " test",
  "1359": "inal",
  "1360": " main",
  "1361": "leg",
  "1362": " using",
  "1363": "ology",
  "1364": " win",
  "1365": " form",
  "1366": "He",
  "1367": " pos",
  "1368": " val",
  "1369": " American",
  "1370": " level",
  "1371": " fun",
  "1372": "be",
  "1373": "ott",
  "1374": " school",
  "1375": " econom",
  "1376": "ertain",
  "1377": "iving",
  "1378": " So",
  "1379": " police",
  "1380": "arge",
  "1381": " women",
  "1382": "ined",
  "1383": "ploy",
  "1384": "iver",
  "1385": " =",
  "1386": "'re",
  "1387": " list",
  "1388": " book",
  "1389": " small",
  "1390": " eas",
  "1391": "uck",
  "1392": "ready",
  "1393": " data",
  "1394": " United",
  "1395": " Ph",
  "1396": "rap",
  "1397": "ohn",
  "1398": "used",
  "1399": " hist",
  "1400": " Q",
  "1401": " rece",
  "1402": " current",
  "1403": " health",
  "1404": "ird",
  "1405": "ided",
  "1406": "orth",
  "1407": " process",
  "1408": "//",
  "1409": " bre",
  "1410": " change",
  "1411": " company",
  "1412": " president",
  "1413": " 18",
  "1414": " techn",
  "1415": "ger",
  "1416": "reen",
  "1417": "ruct",
  "1418": " business",
  "1419": "ron",
  "1420": " always",
  "1421": " why",
  "1422": " sol",
  "1423": "ians",
  "1424": " mat",
  "1425": " thing",
  "1426": " past",
  "1427": " How",
  "1428": " already",
  "1429": "aining",
  "1430": " able",
  "1431": " prom",
  "1432": "ards",
  "1433": "stand",
  "1434": "wit",
  "1435": " later",
  "1436": " project",
  "1437": " rese",
  "1438": " organ",
  "1439": " chang",
  "1440": "aign",
  "1441": " prof",
  "1442": " unt",
  "1443": "ases",
  "1444": " story",
  "1445": " dri",
  "1446": " job",
  "1447": "aff",
  "1448": " expect",
  "1449": " Ob",
  "1450": " Be",
  "1451": " class",
  "1452": " major",
  "1453": "outh",
  "1454": " away",
  "1455": " claim",
  "1456": "urs",
  "1457": " She",
  "1458": " official",
  "1459": " money",
  "1460": "ample",
  "1461": "ural",
  "1462": " free",
  "1463": " ty",
  "1464": " vis",
  "1465": " talk",
  "1466": "ured",
  "1467": " information",
  "1468": "iven",
  "1469": "ury",
  "1470": " cost",
  "1471": "here",
  "1472": " pat",
  "1473": " ele",
  "1474": " design",
  "1475": "iversity",
  "1476": "side",
  "1477": " old",
  "1478": "ption",
  "1479": " view",
  "1480": "acy",
  "1481": " kill",
  "1482": "to",
  "1483": " city",
  "1484": " stre",
  "1485": "ley",
  "1486": " doesn",
  "1487": " important",
  "1488": " least",
  "1489": "ending",
  "1490": " mar",
  "1491": "sc",
  "1492": " aff",
  "1493": " happen",
  "1494": " came",
  "1495": " men",
  "1496": " est",
  "1497": "50",
  "1498": "rist",
  "1499": " campaign",
  "1500": " Ad",
  "1501": "els",
  "1502": " days",
  "1503": "uthor",
  "1504": " oper",
  "1505": " must",
  "1506": "ides",
  "1507": "alf",
  "1508": "urity",
  "1509": "ccess",
  "1510": "resident",
  "1511": " grow",
  "1512": " sk",
  "1513": "ney",
  "1514": " family",
  "1515": " hop",
  "1516": " friend",
  "1517": "eral",
  "1518": " tax",
  "1519": "ted",
  "1520": " record",
  "1521": " making",
  "1522": " tell",
  "1523": " enough",
  "1524": "ission",
  "1525": "St",
  "1526": "ior",
  "1527": " Mar",
  "1528": " var",
  "1529": " kind",
  "1530": "...",
  "1531": " Sp",
  "1532": " const",
  "1533": "ider",
  "1534": " elect",
  "1535": "ising",
  "1536": " vide",
  "1537": " sit",
  "1538": "ality",
  "1539": " Go",
  "1540": " large",
  "1541": "pped",
  "1542": "oad",
  "1543": "arent",
  "1544": "bs",
  "1545": "ush",
  "1546": " polic",
  "1547": " took",
  "1548": " name",
  "1549": " deal",
  "1550": "ified",
  "1551": "ued",
  "1552": " John",
  "1553": "augh",
  "1554": " political",
  "1555": " Republic",
  "1556": " es",
  "1557": "ox",
  "1558": " air",
  "1559": "ror",
  "1560": "ived",
  "1561": "19",
  "1562": " edit",
  "1563": "work",
  "1564": " until",
  "1565": "As",
  "1566": " del",
  "1567": "ane",
  "1568": "enn",
  "1569": "by",
  "1570": " ve",
  "1571": "ocrat",
  "1572": " games",
  "1573": "ional",
  "1574": " working",
  "1575": "If",
  "1576": " line",
  "1577": "â¦",
  "1578": "iol",
  "1579": " become",
  "1580": " Can",
  "1581": " according",
  "1582": " deb",
  "1583": "ries",
  "1584": " mean",
  "1585": "ER",
  "1586": "ister",
  "1587": " former",
  "1588": " ever",
  "1589": "ony",
  "1590": " Sc",
  "1591": "ember",
  "1592": " Dem",
  "1593": "aps",
  "1594": " actually",
  "1595": " return",
  "1596": "ator",
  "1597": " often",
  "1598": " bas",
  "1599": " won",
  "1600": "ison",
  "1601": "iqu",
  "1602": "year",
  "1603": " intern",
  "1604": " human",
  "1605": " Pl",
  "1606": " times",
  "1607": "ization",
  "1608": " Mc",
  "1609": " fund",
  "1610": " give",
  "1611": "most",
  "1612": "ware",
  "1613": " fore",
  "1614": "eng",
  "1615": " players",
  "1616": "aring",
  "1617": " All",
  "1618": " sing",
  "1619": "icle",
  "1620": " sever",
  "1621": "wh",
  "1622": "rop",
  "1623": "ither",
  "1624": "sh",
  "1625": " Comm",
  "1626": " order",
  "1627": " Russ",
  "1628": "gin",
  "1629": " word",
  "1630": " media",
  "1631": "ague",
  "1632": "ium",
  "1633": " seen",
  "1634": "ball",
  "1635": " doing",
  "1636": "uture",
  "1637": "for",
  "1638": " charac",
  "1639": " bit",
  "1640": " May",
  "1641": "----",
  "1642": " At",
  "1643": "There",
  "1644": "raft",
  "1645": " la",
  "1646": " dev",
  "1647": " social",
  "1648": " appear",
  "1649": " market",
  "1650": " night",
  "1651": " young",
  "1652": "oint",
  "1653": " children",
  "1654": " crit",
  "1655": " ,",
  "1656": " control",
  "1657": " having",
  "1658": " ra",
  "1659": " President",
  "1660": " early",
  "1661": " fac",
  "1662": "ched",
  "1663": " sure",
  "1664": "idd",
  "1665": " went",
  "1666": " perform",
  "1667": " five",
  "1668": "ories",
  "1669": " several",
  "1670": " today",
  "1671": "iam",
  "1672": "aken",
  "1673": " York",
  "1674": " Or",
  "1675": "iber",
  "1676": "iously",
  "1677": "br",
  "1678": " Sy",
  "1679": " Con",
  "1680": " press",
  "1681": " event",
  "1682": "ands",
  "1683": " 15",
  "1684": "let",
  "1685": " arg",
  "1686": " Euro",
  "1687": " avail",
  "1688": " States",
  "1689": " pot",
  "1690": "11",
  "1691": " occ",
  "1692": " success",
  "1693": " prop",
  "1694": "vert",
  "1695": " whether",
  "1696": "une",
  "1697": " example",
  "1698": " 199",
  "1699": "artment",
  "1700": "idence",
  "1701": " along",
  "1702": " question",
  "1703": "ats",
  "1704": " No",
  "1705": " likely",
  "1706": "uff",
  "1707": " milit",
  "1708": "inc",
  "1709": " equ",
  "1710": " invol",
  "1711": " months",
  "1712": " water",
  "1713": " members",
  "1714": "mber",
  "1715": "ster",
  "1716": "ots",
  "1717": " ben",
  "1718": " sex",
  "1719": " short",
  "1720": " fight",
  "1721": " within",
  "1722": " vers",
  "1723": " fail",
  "1724": " done",
  "1725": " certain",
  "1726": " among",
  "1727": "And",
  "1728": " hour",
  "1729": " meet",
  "1730": "empt",
  "1731": " once",
  "1732": "ivid",
  "1733": "ially",
  "1734": " Br",
  "1735": "back",
  "1736": "ubl",
  "1737": " ant",
  "1738": " understand",
  "1739": " Col",
  "1740": "ortun",
  "1741": " thought",
  "1742": " side",
  "1743": " desc",
  "1744": "iting",
  "1745": "urch",
  "1746": " means",
  "1747": "nect",
  "1748": "lf",
  "1749": " priv",
  "1750": " future",
  "1751": " across",
  "1752": " eng",
  "1753": " viol",
  "1754": " local",
  "1755": "ential",
  "1756": " course",
  "1757": "ggest",
  "1758": " product",
  "1759": " 11",
  "1760": "rew",
  "1761": " #",
  "1762": " investig",
  "1763": "ones",
  "1764": " hold",
  "1765": "ulation",
  "1766": "ler",
  "1767": "verage",
  "1768": "ended",
  "1769": " cho",
  "1770": " Obama",
  "1771": " known",
  "1772": " Mr",
  "1773": " reason",
  "1774": "gress",
  "1775": "ourn",
  "1776": "imate",
  "1777": " writ",
  "1778": " &",
  "1779": "my",
  "1780": " On",
  "1781": " activ",
  "1782": "book",
  "1783": " possible",
  "1784": " protect",
  "1785": " State",
  "1786": " suggest",
  "1787": "itive",
  "1788": " available",
  "1789": " problem",
  "1790": "ã",
  "1791": "oci",
  "1792": " When",
  "1793": " non",
  "1794": "aged",
  "1795": " community",
  "1796": " yet",
  "1797": " asked",
  "1798": " light",
  "1799": " House",
  "1800": " video",
  "1801": " 2016",
  "1802": " orig",
  "1803": " makes",
  "1804": " author",
  "1805": "ald",
  "1806": "arm",
  "1807": " creat",
  "1808": " getting",
  "1809": " cut",
  "1810": "ensive",
  "1811": " believe",
  "1812": " cond",
  "1813": "not",
  "1814": "ederal",
  "1815": " prob",
  "1816": " given",
  "1817": " Europe",
  "1818": " 30",
  "1819": " reported",
  "1820": "urther",
  "1821": " others",
  "1822": "ober",
  "1823": "itions",
  "1824": "iety",
  "1825": " Christ",
  "1826": " net",
  "1827": " land",
  "1828": " ca",
  "1829": "ene",
  "1830": " Cent",
  "1831": "orld",
  "1832": "You",
  "1833": " Co",
  "1834": "ashing",
  "1835": " Fl",
  "1836": " mus",
  "1837": " i",
  "1838": "uly",
  "1839": "por",
  "1840": " announ",
  "1841": " Te",
  "1842": " strong",
  "1843": " ]",
  "1844": " death",
  "1845": "ances",
  "1846": " lim",
  "1847": " national",
  "1848": "iron",
  "1849": "12",
  "1850": " Democrat",
  "1851": " started",
  "1852": " 2014",
  "1853": " ago",
  "1854": " X",
  "1855": " ident",
  "1856": " sent",
  "1857": "aster",
  "1858": "ored",
  "1859": "rest",
  "1860": " half",
  "1861": " Am",
  "1862": "'ve",
  "1863": " employ",
  "1864": " 2015",
  "1865": " issue",
  "1866": " par",
  "1867": " mom",
  "1868": " hig",
  "1869": " close",
  "1870": " trying",
  "1871": "30",
  "1872": " access",
  "1873": " following",
  "1874": "hers",
  "1875": " University",
  "1876": " love",
  "1877": " history",
  "1878": " party",
  "1879": "AT",
  "1880": "orts",
  "1881": "ilar",
  "1882": " based",
  "1883": " saf",
  "1884": " comes",
  "1885": " Sen",
  "1886": " America",
  "1887": ".,",
  "1888": " sour",
  "1889": " Min",
  "1890": "For",
  "1891": "ination",
  "1892": "selves",
  "1893": " almost",
  "1894": " foc",
  "1895": "â",
  "1896": " series",
  "1897": " indust",
  "1898": " low",
  "1899": "resent",
  "1900": "ividual",
  "1901": "ument",
  "1902": " toget",
  "1903": " together",
  "1904": " idea",
  "1905": "use",
  "1906": "ability",
  "1907": "itional",
  "1908": " looking",
  "1909": " 16",
  "1910": " Â",
  "1911": " account",
  "1912": "ograp",
  "1913": " six",
  "1914": " One",
  "1915": "utes",
  "1916": "of",
  "1917": "though",
  "1918": "ream",
  "1919": " added",
  "1920": "ales",
  "1921": " experience",
  "1922": "rict",
  "1923": " isn",
  "1924": " impro",
  "1925": " anything",
  "1926": "erence",
  "1927": "ails",
  "1928": "ev",
  "1929": "ief",
  "1930": "ote",
  "1931": " saying",
  "1932": "ring",
  "1933": "ustom",
  "1934": " clear",
  "1935": "ien",
  "1936": "witter",
  "1937": "aper",
  "1938": "IN",
  "1939": "eb",
  "1940": " er",
  "1941": " trad",
  "1942": " mor",
  "1943": "reed",
  "1944": "unch",
  "1945": "pro",
  "1946": " Af",
  "1947": "irc",
  "1948": " fav",
  "1949": "ged",
  "1950": " Pr",
  "1951": "sy",
  "1952": " anal",
  "1953": "cer",
  "1954": "aid",
  "1955": " area",
  "1956": " rul",
  "1957": " pract",
  "1958": "minist",
  "1959": "15",
  "1960": " complete",
  "1961": " /",
  "1962": " 14",
  "1963": "rown",
  "1964": " miss",
  "1965": " phot",
  "1966": " What",
  "1967": " face",
  "1968": "'m",
  "1969": " live",
  "1970": " present",
  "1971": "ris",
  "1972": " near",
  "1973": " court",
  "1974": "af",
  "1975": " Ex",
  "1976": "play",
  "1977": "raw",
  "1978": " Eng",
  "1979": " individual",
  "1980": " compet",
  "1981": " vict",
  "1982": " film",
  "1983": " bill",
  "1984": " cult",
  "1985": "ows",
  "1986": " Canad",
  "1987": " single",
  "1988": "wards",
  "1989": " ris",
  "1990": " taken",
  "1991": "osp",
  "1992": "rug",
  "1993": " threat",
  "1994": " black",
  "1995": " Har",
  "1996": " mind",
  "1997": "go",
  "1998": " bad",
  "1999": " try",
  "2000": "ai",
  "2001": " rather",
  "2002": " entire",
  "2003": " mult",
  "2004": " Pol",
  "2005": " aut",
  "2006": " City",
  "2007": " colle",
  "2008": "cially",
  "2009": " proper",
  "2010": " War",
  "2011": " behind",
  "2012": " z",
  "2013": " 17",
  "2014": " military",
  "2015": " wanted",
  "2016": "erman",
  "2017": "uge",
  "2018": " Brit",
  "2019": " publ",
  "2020": "On",
  "2021": " concern",
  "2022": "What",
  "2023": "ids",
  "2024": " study",
  "2025": " Im",
  "2026": " quick",
  "2027": "inton",
  "2028": " North",
  "2029": "ators",
  "2030": " tot",
  "2031": " sum",
  "2032": " Cal",
  "2033": "par",
  "2034": " redu",
  "2035": " discuss",
  "2036": "atic",
  "2037": "nes",
  "2038": "off",
  "2039": " security",
  "2040": " fall",
  "2041": " Don",
  "2042": "ON",
  "2043": " Gr",
  "2044": "rael",
  "2045": " player",
  "2046": " mess",
  "2047": " special",
  "2048": " policy",
  "2049": " foot",
  "2050": "An",
  "2051": " Sec",
  "2052": " points",
  "2053": " pret",
  "2054": " bring",
  "2055": "elt",
  "2056": "arter",
  "2057": " research",
  "2058": "When",
  "2059": " 13",
  "2060": " probably",
  "2061": " attempt",
  "2062": " To",
  "2063": " comb",
  "2064": "ashington",
  "2065": "ply",
  "2066": "lling",
  "2067": " pick",
  "2068": " Dep",
  "2069": " compan",
  "2070": " house",
  "2071": "ches",
  "2072": "rote",
  "2073": " someone",
  "2074": "lish",
  "2075": " taking",
  "2076": " key",
  "2077": " cou",
  "2078": "icult",
  "2079": "RE",
  "2080": "irl",
  "2081": " field",
  "2082": " Man",
  "2083": "16",
  "2084": " wa",
  "2085": " benef",
  "2086": "reme",
  "2087": "over",
  "2088": " imm",
  "2089": "AN",
  "2090": " Aust",
  "2091": " body",
  "2092": "ttp",
  "2093": "ify",
  "2094": " targ",
  "2095": " connect",
  "2096": " conv",
  "2097": " similar",
  "2098": " nothing",
  "2099": " coun",
  "2100": " front",
  "2101": "dd",
  "2102": " coming",
  "2103": " rights",
  "2104": "cing",
  "2105": "viron",
  "2106": " meas",
  "2107": " food",
  "2108": " jo",
  "2109": " signific",
  "2110": "ming",
  "2111": ".)",
  "2112": "So",
  "2113": " further",
  "2114": " else",
  "2115": " describ",
  "2116": " World",
  "2117": " space",
  "2118": " sw",
  "2119": " National",
  "2120": " lab",
  "2121": " ey",
  "2122": "IS",
  "2123": " either",
  "2124": " learn",
  "2125": " exist",
  "2126": " service",
  "2127": "ried",
  "2128": "yn",
  "2129": "ã",
  "2130": "amed",
  "2131": " wrote",
  "2132": " decision",
  "2133": " however",
  "2134": "arth",
  "2135": "ww",
  "2136": "ault",
  "2137": "aces",
  "2138": " begin",
  "2139": "ully",
  "2140": "ana",
  "2141": " watch",
  "2142": "asing",
  "2143": "itted",
  "2144": " repl",
  "2145": " create",
  "2146": "That",
  "2147": "head",
  "2148": " 2013",
  "2149": "ung",
  "2150": " third",
  "2151": " With",
  "2152": " whole",
  "2153": " issues",
  "2154": "ively",
  "2155": "://",
  "2156": " ener",
  "2157": " |",
  "2158": " Washington",
  "2159": " relations",
  "2160": " sus",
  "2161": " +",
  "2162": " hit",
  "2163": "14",
  "2164": "olution",
  "2165": " enc",
  "2166": " chall",
  "2167": " released",
  "2168": " feat",
  "2169": " leaders",
  "2170": "oon",
  "2171": " mass",
  "2172": " step",
  "2173": " compl",
  "2174": " room",
  "2175": "pping",
  "2176": "rodu",
  "2177": " tra",
  "2178": " companies",
  "2179": " Gu",
  "2180": " seems",
  "2181": " doc",
  "2182": " stop",
  "2183": " Clinton",
  "2184": " 25",
  "2185": " Dav",
  "2186": "ently",
  "2187": "pite",
  "2188": " due",
  "2189": " opt",
  "2190": "aul",
  "2191": " dam",
  "2192": "ape",
  "2193": "lam",
  "2194": " :",
  "2195": " custom",
  "2196": " federal",
  "2197": " cand",
  "2198": " fire",
  "2199": " fig",
  "2200": " super",
  "2201": " Israel",
  "2202": " everything",
  "2203": " outside",
  "2204": " began",
  "2205": " Jan",
  "2206": " dou",
  "2207": " Inst",
  "2208": " final",
  "2209": " However",
  "2210": " character",
  "2211": "ran",
  "2212": "now",
  "2213": "amer",
  "2214": " break",
  "2215": " development",
  "2216": " init",
  "2217": " self",
  "2218": "umb",
  "2219": "reg",
  "2220": "eal",
  "2221": " amount",
  "2222": "arlier",
  "2223": " matter",
  "2224": "sw",
  "2225": " Bar",
  "2226": "ades",
  "2227": " Part",
  "2228": "mb",
  "2229": " itself",
  "2230": " position",
  "2231": " tre",
  "2232": " general",
  "2233": " stri",
  "2234": " gun",
  "2235": "ibility",
  "2236": " South",
  "2237": " Ge",
  "2238": "lement",
  "2239": " treat",
  "2240": " continue",
  "2241": "pecially",
  "2242": "anks",
  "2243": "ivil",
  "2244": " states",
  "2245": "ender",
  "2246": " Med",
  "2247": "____",
  "2248": "lu",
  "2249": " exec",
  "2250": "AR",
  "2251": "uation",
  "2252": " sound",
  "2253": "iday",
  "2254": " statement",
  "2255": " became",
  "2256": " 2012",
  "2257": "ograph",
  "2258": " himself",
  "2259": "lim",
  "2260": " role",
  "2261": "ili",
  "2262": "attle",
  "2263": " neg",
  "2264": " Intern",
  "2265": " stat",
  "2266": " students",
  "2267": "sec",
  "2268": "ery",
  "2269": " Su",
  "2270": " officials",
  "2271": " 2017",
  "2272": " wasn",
  "2273": "vironment",
  "2274": " themselves",
  "2275": " office",
  "2276": "ilt",
  "2277": " ball",
  "2278": " inj",
  "2279": "like",
  "2280": "â",
  "2281": "acebook",
  "2282": " provide",
  "2283": " woman",
  "2284": " agree",
  "2285": " action",
  "2286": "Ch",
  "2287": "ogn",
  "2288": " larg",
  "2289": " significant",
  "2290": " running",
  "2291": "obal",
  "2292": "BC",
  "2293": " difficult",
  "2294": " specific",
  "2295": " profess",
  "2296": " hours",
  "2297": " played",
  "2298": " deep",
  "2299": " capt",
  "2300": " phys",
  "2301": " building",
  "2302": " administ",
  "2303": "18",
  "2304": "aced",
  "2305": " ground",
  "2306": " lat",
  "2307": " true",
  "2308": "irt",
  "2309": " simply",
  "2310": " interview",
  "2311": " playing",
  "2312": " cop",
  "2313": " charg",
  "2314": " represent",
  "2315": " 100",
  "2316": " dom",
  "2317": "13",
  "2318": " Just",
  "2319": " saw",
  "2320": " above",
  "2321": "ournal",
  "2322": " common",
  "2323": "body",
  "2324": "right",
  "2325": " below",
  "2326": " App",
  "2327": " Ed",
  "2328": " ap",
  "2329": " mag",
  "2330": " countries",
  "2331": "'ll",
  "2332": "oid",
  "2333": "iddle",
  "2334": " Res",
  "2335": " energy",
  "2336": " evidence",
  "2337": "atur",
  "2338": "ask",
  "2339": "eks",
  "2340": "angu",
  "2341": " drug",
  "2342": " sense",
  "2343": " shows",
  "2344": " respons",
  "2345": " groups",
  "2346": "ique",
  "2347": " friends",
  "2348": "iod",
  "2349": " red",
  "2350": " white",
  "2351": " pretty",
  "2352": " needs",
  "2353": "time",
  "2354": " lost",
  "2355": " exc",
  "2356": " everyone",
  "2357": "Ã©",
  "2358": " Ab",
  "2359": " 50",
  "2360": " track",
  "2361": " Ass",
  "2362": " tem",
  "2363": "ij",
  "2364": " dest",
  "2365": " version",
  "2366": " typ",
  "2367": " China",
  "2368": " bar",
  "2369": " address",
  "2370": " His",
  "2371": " Mus",
  "2372": "ift",
  "2373": " )",
  "2374": "ser",
  "2375": " value",
  "2376": "ached",
  "2377": "17",
  "2378": " recently",
  "2379": " needed",
  "2380": " pain",
  "2381": " rad",
  "2382": "yle",
  "2383": " forward",
  "2384": " Car",
  "2385": " 198",
  "2386": " West",
  "2387": " changes",
  "2388": " candid",
  "2389": " music",
  "2390": " hom",
  "2391": " di",
  "2392": " release",
  "2393": "ogle",
  "2394": " ep",
  "2395": "omm",
  "2396": "ccording",
  "2397": " include",
  "2398": " gen",
  "2399": " alleg",
  "2400": "ribut",
  "2401": "oke",
  "2402": " quite",
  "2403": " late",
  "2404": "isc",
  "2405": " tit",
  "2406": " industry",
  "2407": " election",
  "2408": "istic",
  "2409": " circ",
  "2410": "ned",
  "2411": " mot",
  "2412": " online",
  "2413": " White",
  "2414": " instead",
  "2415": " After",
  "2416": " German",
  "2417": " site",
  "2418": "oring",
  "2419": " weeks",
  "2420": "arc",
  "2421": "ST",
  "2422": "epend",
  "2423": " deter",
  "2424": " anim",
  "2425": " moment",
  "2426": "osing",
  "2427": " accept",
  "2428": "ental",
  "2429": " host",
  "2430": " jud",
  "2431": " legal",
  "2432": "ights",
  "2433": " shoot",
  "2434": "me",
  "2435": " opportun",
  "2436": "eed",
  "2437": " vote",
  "2438": " Twitter",
  "2439": "itting",
  "2440": "ients",
  "2441": " abs",
  "2442": " ple",
  "2443": "Al",
  "2444": " especially",
  "2445": "where",
  "2446": " wrong",
  "2447": " relig",
  "2448": " parent",
  "2449": " goal",
  "2450": "How",
  "2451": " pie",
  "2452": "bo",
  "2453": " suff",
  "2454": " decl",
  "2455": "ival",
  "2456": " webs",
  "2457": " My",
  "2458": " Not",
  "2459": " soon",
  "2460": "apt",
  "2461": "ele",
  "2462": " 24",
  "2463": " object",
  "2464": " pred",
  "2465": " Cong",
  "2466": " economic",
  "2467": " longer",
  "2468": " Republican",
  "2469": " higher",
  "2470": "medi",
  "2471": " hope",
  "2472": " block",
  "2473": "ularly",
  "2474": "ager",
  "2475": " educ",
  "2476": "ees",
  "2477": " Will",
  "2478": " held",
  "2479": "ham",
  "2480": " walk",
  "2481": "oe",
  "2482": " period",
  "2483": "**",
  "2484": " Aug",
  "2485": "irm",
  "2486": " Dr",
  "2487": " billion",
  "2488": " focus",
  "2489": "oph",
  "2490": "They",
  "2491": " technology",
  "2492": " consum",
  "2493": " News",
  "2494": "asons",
  "2495": " review",
  "2496": "lt",
  "2497": " code",
  "2498": " laws",
  "2499": "ript",
  "2500": " Sept",
  "2501": " works",
  "2502": " stay",
  "2503": " share",
  "2504": "cial",
  "2505": " Department",
  "2506": " Oct",
  "2507": "onse",
  "2508": " target",
  "2509": "ray",
  "2510": " Mich",
  "2511": " check",
  "2512": "iding",
  "2513": " These",
  "2514": " consider",
  "2515": " lo",
  "2516": " March",
  "2517": "duct",
  "2518": "hod",
  "2519": " led",
  "2520": " stru",
  "2521": " personal",
  "2522": "urd",
  "2523": "cle",
  "2524": " hy",
  "2525": "overed",
  "2526": "ole",
  "2527": " reve",
  "2528": " results",
  "2529": " anyone",
  "2530": " vol",
  "2531": " Austral",
  "2532": " Ste",
  "2533": " age",
  "2534": "ude",
  "2535": " dead",
  "2536": " words",
  "2537": " minutes",
  "2538": " sold",
  "2539": " potential",
  "2540": " den",
  "2541": "cil",
  "2542": " earlier",
  "2543": " contract",
  "2544": " wind",
  "2545": "key",
  "2546": "hern",
  "2547": "Ad",
  "2548": "rel",
  "2549": " favor",
  "2550": " base",
  "2551": "ateg",
  "2552": " total",
  "2553": " July",
  "2554": " services",
  "2555": " Sm",
  "2556": " rate",
  "2557": " applic",
  "2558": "pril",
  "2559": "ã",
  "2560": " prim",
  "2561": " risk",
  "2562": " Ð",
  "2563": "alt",
  "2564": " necess",
  "2565": "aging",
  "2566": "action",
  "2567": " June",
  "2568": "hel",
  "2569": " force",
  "2570": "ilities",
  "2571": " popular",
  "2572": " impact",
  "2573": " Facebook",
  "2574": " scient",
  "2575": "uary",
  "2576": "isl",
  "2577": " En",
  "2578": " article",
  "2579": "haps",
  "2580": " speak",
  "2581": " rev",
  "2582": "AS",
  "2583": " Mond",
  "2584": "anger",
  "2585": "ourt",
  "2586": " ways",
  "2587": " created",
  "2588": " Red",
  "2589": "iter",
  "2590": "ends",
  "2591": " <",
  "2592": "uel",
  "2593": " aud",
  "2594": "icro",
  "2595": " surpr",
  "2596": "fect",
  "2597": " problems",
  "2598": " God",
  "2599": "aut",
  "2600": " 2011",
  "2601": " cannot",
  "2602": "EN",
  "2603": " anti",
  "2604": "fer",
  "2605": " upd",
  "2606": " respect",
  "2607": " expected",
  "2608": " coll",
  "2609": " Me",
  "2610": " shot",
  "2611": " answ",
  "2612": "itution",
  "2613": " questions",
  "2614": "25",
  "2615": "iple",
  "2616": " club",
  "2617": " Pe",
  "2618": "Ph",
  "2619": " private",
  "2620": "apan",
  "2621": " increase",
  "2622": " express",
  "2623": " involved",
  "2624": " Congress",
  "2625": "val",
  "2626": "ples",
  "2627": "itten",
  "2628": " cred",
  "2629": "itiz",
  "2630": " received",
  "2631": "reet",
  "2632": " function",
  "2633": " easy",
  "2634": " Syri",
  "2635": "ancial",
  "2636": " environment",
  "2637": " comment",
  "2638": "oto",
  "2639": "cast",
  "2640": "ctor",
  "2641": " content",
  "2642": " subject",
  "2643": " comput",
  "2644": " mater",
  "2645": "aving",
  "2646": " langu",
  "2647": "ams",
  "2648": " Hill",
  "2649": " port",
  "2650": " Monday",
  "2651": "OR",
  "2652": " price",
  "2653": "urg",
  "2654": " announced",
  "2655": " pack",
  "2656": " tou",
  "2657": " relationship",
  "2658": "che",
  "2659": " users",
  "2660": " exact",
  "2661": " broad",
  "2662": "atives",
  "2663": " heart",
  "2664": " staff",
  "2665": " Do",
  "2666": " civil",
  "2667": "put",
  "2668": " sen",
  "2669": " nearly",
  "2670": "ittee",
  "2671": " San",
  "2672": " response",
  "2673": " original",
  "2674": " Calif",
  "2675": "ule",
  "2676": " execut",
  "2677": " reports",
  "2678": "lled",
  "2679": "atural",
  "2680": " living",
  "2681": " cases",
  "2682": " Friday",
  "2683": " Count",
  "2684": "lex",
  "2685": "ires",
  "2686": " April",
  "2687": " arrest",
  "2688": "ites",
  "2689": " mother",
  "2690": "ips",
  "2691": "uesday",
  "2692": " cal",
  "2693": "ops",
  "2694": " pur",
  "2695": "hood",
  "2696": "onst",
  "2697": " collect",
  "2698": " inside",
  "2699": " oil",
  "2700": "okes",
  "2701": " terms",
  "2702": " worked",
  "2703": "ests",
  "2704": " Wed",
  "2705": " store",
  "2706": " TV",
  "2707": " becom",
  "2708": " nation",
  "2709": " Pal",
  "2710": " type",
  "2711": " div",
  "2712": " {",
  "2713": "mon",
  "2714": " squ",
  "2715": "mp",
  "2716": "ael",
  "2717": "At",
  "2718": "rought",
  "2719": " respond",
  "2720": "eter",
  "2721": "ellig",
  "2722": " fans",
  "2723": " girl",
  "2724": "60",
  "2725": " round",
  "2726": "ought",
  "2727": " average",
  "2728": " Now",
  "2729": "org",
  "2730": " immedi",
  "2731": " 197",
  "2732": " soft",
  "2733": " teams",
  "2734": " lack",
  "2735": "omb",
  "2736": " Sund",
  "2737": " Russia",
  "2738": " published",
  "2739": "joy",
  "2740": " international",
  "2741": " killed",
  "2742": " takes",
  "2743": "\".",
  "2744": "oor",
  "2745": "bit",
  "2746": " worth",
  "2747": "ext",
  "2748": " Americans",
  "2749": "izing",
  "2750": " Tuesday",
  "2751": " 40",
  "2752": " estab",
  "2753": "istan",
  "2754": "ctions",
  "2755": "To",
  "2756": " 2010",
  "2757": " network",
  "2758": " Islam",
  "2759": " terror",
  "2760": " Afric",
  "2761": " workers",
  "2762": " ability",
  "2763": " defin",
  "2764": "nesday",
  "2765": " chance",
  "2766": " gave",
  "2767": " cy",
  "2768": " associ",
  "2769": " arri",
  "2770": "vertise",
  "2771": "na",
  "2772": " While",
  "2773": " adm",
  "2774": " British",
  "2775": " Ang",
  "2776": " Google",
  "2777": " director",
  "2778": " career",
  "2779": " cell",
  "2780": " whose",
  "2781": " mid",
  "2782": " decided",
  "2783": " leave",
  "2784": "rain",
  "2785": "ises",
  "2786": " numbers",
  "2787": "ornia",
  "2788": "icated",
  "2789": "oved",
  "2790": " weap",
  "2791": " fem",
  "2792": " happened",
  "2793": "ological",
  "2794": "clus",
  "2795": " emer",
  "2796": "ners",
  "2797": " buy",
  "2798": "based",
  "2799": " capital",
  "2800": " Japan",
  "2801": " affect",
  "2802": "ky",
  "2803": " model",
  "2804": " source",
  "2805": "aily",
  "2806": " et",
  "2807": " @",
  "2808": " goes",
  "2809": " road",
  "2810": " Nove",
  "2811": "unt",
  "2812": " lives",
  "2813": " Some",
  "2814": " Act",
  "2815": "One",
  "2816": " log",
  "2817": " Off",
  "2818": " influ",
  "2819": " turned",
  "2820": " Per",
  "2821": " tal",
  "2822": " plans",
  "2823": " match",
  "2824": "bl",
  "2825": "aur",
  "2826": " currently",
  "2827": "ened",
  "2828": " recogn",
  "2829": " global",
  "2830": " ste",
  "2831": "ursday",
  "2832": " approach",
  "2833": " Wednesday",
  "2834": " phone",
  "2835": " material",
  "2836": " require",
  "2837": " 22",
  "2838": "osition",
  "2839": " foreign",
  "2840": " By",
  "2841": " David",
  "2842": " September",
  "2843": " El",
  "2844": " offer",
  "2845": " situation",
  "2846": " administration",
  "2847": " thous",
  "2848": " events",
  "2849": "order",
  "2850": " Ag",
  "2851": " mis",
  "2852": " Cor",
  "2853": "bor",
  "2854": "fully",
  "2855": " Sch",
  "2856": " regard",
  "2857": "eg",
  "2858": "ills",
  "2859": " introdu",
  "2860": " January",
  "2861": " Bro",
  "2862": " couple",
  "2863": "ese",
  "2864": "oud",
  "2865": " hon",
  "2866": "ino",
  "2867": " Gl",
  "2868": " lower",
  "2869": " trade",
  "2870": "oo",
  "2871": "ech",
  "2872": " Paul",
  "2873": " August",
  "2874": " loss",
  "2875": " Court",
  "2876": " felt",
  "2877": " pict",
  "2878": "ume",
  "2879": "set",
  "2880": " boy",
  "2881": " improve",
  "2882": " member",
  "2883": " ill",
  "2884": " 21",
  "2885": "lev",
  "2886": " method",
  "2887": " bank",
  "2888": " huge",
  "2889": " repe",
  "2890": " pull",
  "2891": " website",
  "2892": " race",
  "2893": " tool",
  "2894": "AC",
  "2895": " father",
  "2896": " Sunday",
  "2897": " California",
  "2898": " secret",
  "2899": " struct",
  "2900": " fre",
  "2901": "load",
  "2902": " page",
  "2903": "rect",
  "2904": " quickly",
  "2905": " legisl",
  "2906": "ening",
  "2907": " wide",
  "2908": " simple",
  "2909": " meeting",
  "2910": " heard",
  "2911": " performance",
  "2912": "ety",
  "2913": " knew",
  "2914": " Thursday",
  "2915": "orters",
  "2916": "estern",
  "2917": " financial",
  "2918": " Feb",
  "2919": " dig",
  "2920": " travel",
  "2921": " movement",
  "2922": "ruction",
  "2923": " areas",
  "2924": " tried",
  "2925": " via",
  "2926": " text",
  "2927": " November",
  "2928": " cover",
  "2929": "â.",
  "2930": " pers",
  "2931": "40",
  "2932": " norm",
  "2933": "sych",
  "2934": " ord",
  "2935": "--------",
  "2936": "uses",
  "2937": " reach",
  "2938": " town",
  "2939": " behav",
  "2940": "ma",
  "2941": "atory",
  "2942": " economy",
  "2943": "ging",
  "2944": "aker",
  "2945": " reveal",
  "2946": " poll",
  "2947": " Center",
  "2948": " enjoy",
  "2949": "gest",
  "2950": " production",
  "2951": "Sh",
  "2952": " built",
  "2953": " hands",
  "2954": " allowed",
  "2955": " particip",
  "2956": " included",
  "2957": "ification",
  "2958": "chie",
  "2959": "lin",
  "2960": " fear",
  "2961": ");",
  "2962": " separ",
  "2963": " board",
  "2964": " wants",
  "2965": "'d",
  "2966": "down",
  "2967": " victim",
  "2968": " fell",
  "2969": "iction",
  "2970": " particular",
  "2971": " 23",
  "2972": " email",
  "2973": " visit",
  "2974": " brought",
  "2975": "force",
  "2976": " http",
  "2977": " previous",
  "2978": " Black",
  "2979": "face",
  "2980": " Post",
  "2981": " cause",
  "2982": "urning",
  "2983": " morning",
  "2984": "uk",
  "2985": "ceed",
  "2986": "After",
  "2987": " size",
  "2988": " attention",
  "2989": "\",",
  "2990": "raz",
  "2991": " hot",
  "2992": "idered",
  "2993": " star",
  "2994": "With",
  "2995": " spent",
  "2996": " veh",
  "2997": " latest",
  "2998": " Senate",
  "2999": " ens",
  "3000": "avy",
  "3001": " paper",
  "3002": " mention",
  "3003": " October",
  "3004": "?â",
  "3005": " perfect",
  "3006": "urb",
  "3007": " forces",
  "3008": "ES",
  "3009": "99",
  "3010": "ession",
  "3011": " Sw",
  "3012": " Qu",
  "3013": " Canada",
  "3014": "iant",
  "3015": " neigh",
  "3016": " engine",
  "3017": "uf",
  "3018": " training",
  "3019": "Ð¾",
  "3020": "IT",
  "3021": "undred",
  "3022": "ibly",
  "3023": "While",
  "3024": " demand",
  "3025": " Tex",
  "3026": "ences",
  "3027": " 2008",
  "3028": " population",
  "3029": "arily",
  "3030": "ston",
  "3031": "ille",
  "3032": "agement",
  "3033": "alled",
  "3034": " link",
  "3035": " looks",
  "3036": " leader",
  "3037": "iers",
  "3038": " Jew",
  "3039": "fl",
  "3040": "ondon",
  "3041": "ledge",
  "3042": " Par",
  "3043": "cember",
  "3044": "aturday",
  "3045": " levels",
  "3046": " rac",
  "3047": " Russian",
  "3048": "sequ",
  "3049": " bi",
  "3050": " wond",
  "3051": "yond",
  "3052": "het",
  "3053": "hold",
  "3054": " Park",
  "3055": " progress",
  "3056": "icles",
  "3057": "ett",
  "3058": " citiz",
  "3059": " independ",
  "3060": " exam",
  "3061": " European",
  "3062": " gets",
  "3063": " fair",
  "3064": " various",
  "3065": " growth",
  "3066": "ps",
  "3067": " fast",
  "3068": " box",
  "3069": " Times",
  "3070": " coach",
  "3071": " India",
  "3072": "AL",
  "3073": " contact",
  "3074": " talking",
  "3075": " vo",
  "3076": " Cont",
  "3077": " Party",
  "3078": "200",
  "3079": "ecause",
  "3080": "aries",
  "3081": "rim",
  "3082": " bud",
  "3083": " considered",
  "3084": " }",
  "3085": " Her",
  "3086": " search",
  "3087": "idents",
  "3088": " strugg",
  "3089": " sort",
  "3090": " doll",
  "3091": " League",
  "3092": " County",
  "3093": " medical",
  "3094": " und",
  "3095": " image",
  "3096": "....",
  "3097": "ope",
  "3098": "inks",
  "3099": " investigation",
  "3100": " hor",
  "3101": " addition",
  "3102": "uit",
  "3103": "ground",
  "3104": "ED",
  "3105": " parents",
  "3106": " language",
  "3107": " sett",
  "3108": " IS",
  "3109": " sens",
  "3110": " rules",
  "3111": "Tr",
  "3112": "vent",
  "3113": "ico",
  "3114": "pir",
  "3115": " prison",
  "3116": "ani",
  "3117": " range",
  "3118": "wo",
  "3119": "atform",
  "3120": " speed",
  "3121": " ess",
  "3122": " Iran",
  "3123": " reb",
  "3124": "field",
  "3125": " Street",
  "3126": "ny",
  "3127": "ysis",
  "3128": " conduct",
  "3129": "uments",
  "3130": "elligence",
  "3131": "omp",
  "3132": " critic",
  "3133": " Kore",
  "3134": "raq",
  "3135": "come",
  "3136": "igr",
  "3137": "unk",
  "3138": "aph",
  "3139": "eared",
  "3140": " features",
  "3141": " son",
  "3142": "zz",
  "3143": "eth",
  "3144": " written",
  "3145": "idge",
  "3146": "IC",
  "3147": " serious",
  "3148": " slow",
  "3149": " Pat",
  "3150": " increasing",
  "3151": " bott",
  "3152": "vey",
  "3153": " Mark",
  "3154": "aming",
  "3155": " liber",
  "3156": " Saturday",
  "3157": " December",
  "3158": " stuff",
  "3159": " sexual",
  "3160": " achie",
  "3161": "ication",
  "3162": " Muslim",
  "3163": "ining",
  "3164": " society",
  "3165": " 28",
  "3166": "ze",
  "3167": " extreme",
  "3168": " prep",
  "3169": " attacks",
  "3170": " seven",
  "3171": "light",
  "3172": " modern",
  "3173": "cies",
  "3174": " song",
  "3175": " jobs",
  "3176": " upon",
  "3177": " eight",
  "3178": " document",
  "3179": "imately",
  "3180": " prevent",
  "3181": "isions",
  "3182": " middle",
  "3183": " spokes",
  "3184": "Ðµ",
  "3185": " London",
  "3186": " hear",
  "3187": " guy",
  "3188": " More",
  "3189": " journal",
  "3190": "vertisement",
  "3191": "ida",
  "3192": " systems",
  "3193": " seek",
  "3194": " UK",
  "3195": "abor",
  "3196": " particularly",
  "3197": " stories",
  "3198": "FL",
  "3199": " doub",
  "3200": "Im",
  "3201": " card",
  "3202": "urt",
  "3203": "rench",
  "3204": " hous",
  "3205": " draw",
  "3206": " term",
  "3207": " despite",
  "3208": " opportunity",
  "3209": " extra",
  "3210": " inn",
  "3211": "erc",
  "3212": "oman",
  "3213": " message",
  "3214": " Iraq",
  "3215": "anced",
  "3216": " dro",
  "3217": " required",
  "3218": "ruary",
  "3219": " obv",
  "3220": "OP",
  "3221": "entially",
  "3222": " mach",
  "3223": " defense",
  "3224": " biggest",
  "3225": " summer",
  "3226": "room",
  "3227": "eff",
  "3228": " resour",
  "3229": "Â­",
  "3230": " sn",
  "3231": " blood",
  "3232": " prior",
  "3233": " regul",
  "3234": " 26",
  "3235": " majority",
  "3236": " costs",
  "3237": "atter",
  "3238": " cross",
  "3239": "icks",
  "3240": " effort",
  "3241": " violence",
  "3242": " Donald",
  "3243": " completely",
  "3244": "ament",
  "3245": " products",
  "3246": " pen",
  "3247": "itch",
  "3248": " quarter",
  "3249": "illed",
  "3250": " table",
  "3251": " carry",
  "3252": " imag",
  "3253": " McC",
  "3254": " hundred",
  "3255": " natural",
  "3256": " aren",
  "3257": " aw",
  "3258": " surv",
  "3259": " culture",
  "3260": " died",
  "3261": "ago",
  "3262": "akers",
  "3263": "aves",
  "3264": " Em",
  "3265": "nces",
  "3266": " East",
  "3267": "rast",
  "3268": " remain",
  "3269": " occur",
  "3270": " interesting",
  "3271": "asc",
  "3272": "She",
  "3273": "lear",
  "3274": "ishing",
  "3275": " reading",
  "3276": " ult",
  "3277": "bed",
  "3278": " histor",
  "3279": " looked",
  "3280": " gas",
  "3281": " Net",
  "3282": " ...",
  "3283": " mob",
  "3284": "reedom",
  "3285": "lying",
  "3286": " certainly",
  "3287": " convers",
  "3288": " showed",
  "3289": " described",
  "3290": " rout",
  "3291": " officers",
  "3292": " Mor",
  "3293": " leading",
  "3294": " answer",
  "3295": " 27",
  "3296": " ones",
  "3297": " exactly",
  "3298": " region",
  "3299": " claims",
  "3300": " paid",
  "3301": "ford",
  "3302": " lay",
  "3303": "aught",
  "3304": "add",
  "3305": " increased",
  "3306": "inally",
  "3307": "aly",
  "3308": " except",
  "3309": " finally",
  "3310": " Int",
  "3311": " quality",
  "3312": " sometimes",
  "3313": " Jack",
  "3314": "uing",
  "3315": " conserv",
  "3316": " changed",
  "3317": "22",
  "3318": " climate",
  "3319": " football",
  "3320": " continued",
  "3321": "oses",
  "3322": "utions",
  "3323": " camer",
  "3324": " Republicans",
  "3325": "ension",
  "3326": " starting",
  "3327": " practice",
  "3328": " Che",
  "3329": " science",
  "3330": " education",
  "3331": " Spe",
  "3332": " crim",
  "3333": " Texas",
  "3334": " experien",
  "3335": " Coun",
  "3336": "ously",
  "3337": "tr",
  "3338": " named",
  "3339": " Sand",
  "3340": " writing",
  "3341": " comments",
  "3342": "orge",
  "3343": "ospital",
  "3344": " write",
  "3345": "ibr",
  "3346": "enge",
  "3347": " growing",
  "3348": " giving",
  "3349": " Ke",
  "3350": " Indian",
  "3351": " wouldn",
  "3352": " standard",
  "3353": "yl",
  "3354": " assist",
  "3355": " tro",
  "3356": " remains",
  "3357": " poor",
  "3358": " Soc",
  "3359": "HE",
  "3360": " 2009",
  "3361": " user",
  "3362": " screen",
  "3363": " Â£",
  "3364": " failed",
  "3365": "ari",
  "3366": "inese",
  "3367": " Cons",
  "3368": " provided",
  "3369": " *",
  "3370": "arr",
  "3371": " parts",
  "3372": "ports",
  "3373": " path",
  "3374": " danger",
  "3375": "oul",
  "3376": "using",
  "3377": " purch",
  "3378": " thinking",
  "3379": " request",
  "3380": " multiple",
  "3381": "No",
  "3382": " Bill",
  "3383": "iment",
  "3384": " movie",
  "3385": " James",
  "3386": " chief",
  "3387": "tain",
  "3388": " demonst",
  "3389": " unf",
  "3390": "AM",
  "3391": " platform",
  "3392": " effects",
  "3393": "inary",
  "3394": " â¦",
  "3395": " guys",
  "3396": " Even",
  "3397": " league",
  "3398": "][",
  "3399": "ables",
  "3400": " Democratic",
  "3401": " English",
  "3402": " purp",
  "3403": " February",
  "3404": "oper",
  "3405": "coin",
  "3406": " kids",
  "3407": " damage",
  "3408": " rob",
  "3409": " alone",
  "3410": "ges",
  "3411": " center",
  "3412": "mit",
  "3413": " (@",
  "3414": " cele",
  "3415": " brain",
  "3416": " couldn",
  "3417": " reality",
  "3418": " throughout",
  "3419": "eneral",
  "3420": " details",
  "3421": " ban",
  "3422": " King",
  "3423": "ara",
  "3424": " although",
  "3425": "fort",
  "3426": "23",
  "3427": " thousands",
  "3428": " Mon",
  "3429": "urance",
  "3430": " researc",
  "3431": " directly",
  "3432": " pan",
  "3433": " voters",
  "3434": " file",
  "3435": " includes",
  "3436": " consist",
  "3437": "amb",
  "3438": "rowd",
  "3439": " Michael",
  "3440": " books",
  "3441": " towards",
  "3442": " touch",
  "3443": " Des",
  "3444": "OT",
  "3445": " safe",
  "3446": "24",
  "3447": " additional",
  "3448": " subst",
  "3449": "rs",
  "3450": " ready",
  "3451": " fix",
  "3452": " beyond",
  "3453": "pper",
  "3454": "itness",
  "3455": " usually",
  "3456": " ahead",
  "3457": " Serv",
  "3458": "itute",
  "3459": " passed",
  "3460": " perhaps",
  "3461": "BI",
  "3462": "â ",
  "3463": " date",
  "3464": "ampions",
  "3465": " implement",
  "3466": " immediately",
  "3467": " efforts",
  "3468": "ha",
  "3469": " swe",
  "3470": " epis",
  "3471": " avoid",
  "3472": " mill",
  "3473": " dark",
  "3474": "hib",
  "3475": "adem",
  "3476": " counter",
  "3477": " concept",
  "3478": " remember",
  "3479": " item",
  "3480": " recomm",
  "3481": " debate",
  "3482": " calls",
  "3483": " il",
  "3484": " toward",
  "3485": " earn",
  "3486": " title",
  "3487": " score",
  "3488": "astic",
  "3489": "anch",
  "3490": " select",
  "3491": " piece",
  "3492": "Cl",
  "3493": "wise",
  "3494": " letter",
  "3495": " sat",
  "3496": " sell",
  "3497": " safety",
  "3498": " gone",
  "3499": " clean",
  "3500": " Democrats",
  "3501": " choice",
  "3502": " ver",
  "3503": " sle",
  "3504": " meaning",
  "3505": "cient",
  "3506": " option",
  "3507": "raight",
  "3508": " beginning",
  "3509": " scene",
  "3510": " relative",
  "3511": "Now",
  "3512": "OS",
  "3513": "ications",
  "3514": "egr",
  "3515": " reasons",
  "3516": " cast",
  "3517": "rupt",
  "3518": " opin",
  "3519": " conditions",
  "3520": "ression",
  "3521": " appears",
  "3522": "Ð°",
  "3523": "rief",
  "3524": "All",
  "3525": " helped",
  "3526": " launch",
  "3527": " agency",
  "3528": " Minister",
  "3529": " psych",
  "3530": " disapp",
  "3531": "aches",
  "3532": " Chinese",
  "3533": "inated",
  "3534": " designed",
  "3535": "hest",
  "3536": " dog",
  "3537": " difference",
  "3538": "atever",
  "3539": " wife",
  "3540": " ten",
  "3541": " receive",
  "3542": " Ser",
  "3543": " x",
  "3544": "roy",
  "3545": " Green",
  "3546": " century",
  "3547": " throw",
  "3548": "==",
  "3549": "AD",
  "3550": " officer",
  "3551": " color",
  "3552": " college",
  "3553": " moved",
  "3554": " 60",
  "3555": "oes",
  "3556": " Rober",
  "3557": " Associ",
  "3558": " property",
  "3559": " dise",
  "3560": " figure",
  "3561": " challeng",
  "3562": " William",
  "3563": "irth",
  "3564": "men",
  "3565": " deg",
  "3566": "riage",
  "3567": " speech",
  "3568": "omen",
  "3569": " physical",
  "3570": " ign",
  "3571": "uclear",
  "3572": "ilies",
  "3573": " First",
  "3574": " Ne",
  "3575": " pressure",
  "3576": " clos",
  "3577": " Bo",
  "3578": " Day",
  "3579": " aim",
  "3580": " ut",
  "3581": " compared",
  "3582": " maybe",
  "3583": " suspect",
  "3584": " sil",
  "3585": " copy",
  "3586": "ube",
  "3587": "de",
  "3588": " corpor",
  "3589": "imum",
  "3590": "berg",
  "3591": "sp",
  "3592": "ivity",
  "3593": "ux",
  "3594": "By",
  "3595": " sal",
  "3596": " complex",
  "3597": " Of",
  "3598": " Then",
  "3599": " Rich",
  "3600": " 29",
  "3601": " Tur",
  "3602": " Mex",
  "3603": "icient",
  "3604": "arian",
  "3605": " software",
  "3606": " income",
  "3607": " student",
  "3608": "new",
  "3609": "AP",
  "3610": " nature",
  "3611": "aughter",
  "3612": "airs",
  "3613": " eyes",
  "3614": " myself",
  "3615": "iles",
  "3616": " encour",
  "3617": "venue",
  "3618": "?\"",
  "3619": " smart",
  "3620": "Is",
  "3621": "itor",
  "3622": " alleged",
  "3623": " arch",
  "3624": " device",
  "3625": " rock",
  "3626": " fan",
  "3627": "80",
  "3628": "iable",
  "3629": " necessary",
  "3630": "ufact",
  "3631": " happy",
  "3632": "US",
  "3633": " park",
  "3634": "olute",
  "3635": " characters",
  "3636": " organization",
  "3637": " â",
  "3638": " cool",
  "3639": " moving",
  "3640": " largest",
  "3641": " Play",
  "3642": " followed",
  "3643": " estim",
  "3644": " politics",
  "3645": " actions",
  "3646": "My",
  "3647": "ocked",
  "3648": " powerful",
  "3649": "just",
  "3650": " prem",
  "3651": "agon",
  "3652": " meant",
  "3653": "Re",
  "3654": " Val",
  "3655": "wood",
  "3656": " treatment",
  "3657": " spending",
  "3658": " web",
  "3659": " aware",
  "3660": "resh",
  "3661": " wall",
  "3662": " blog",
  "3663": "ero",
  "3664": " analysis",
  "3665": " Mart",
  "3666": " tour",
  "3667": " feed",
  "3668": "iring",
  "3669": "arning",
  "3670": " positive",
  "3671": "chan",
  "3672": " nom",
  "3673": " citizens",
  "3674": " shown",
  "3675": " display",
  "3676": " sche",
  "3677": " esc",
  "3678": "yan",
  "3679": " candidate",
  "3680": " yourself",
  "3681": " twe",
  "3682": "enty",
  "3683": " limited",
  "3684": " stage",
  "3685": "ota",
  "3686": " II",
  "3687": " budget",
  "3688": "osh",
  "3689": "erve",
  "3690": " sales",
  "3691": "Advertisement",
  "3692": "more",
  "3693": " yes",
  "3694": " prec",
  "3695": " schools",
  "3696": " band",
  "3697": " charge",
  "3698": " computer",
  "3699": "uty",
  "3700": "inn",
  "3701": "itation",
  "3702": " French",
  "3703": "orks",
  "3704": " contribut",
  "3705": " crowd",
  "3706": " draft",
  "3707": " refer",
  "3708": " mix",
  "3709": " Angel",
  "3710": " forced",
  "3711": " conference",
  "3712": "orney",
  "3713": "orter",
  "3714": " measure",
  "3715": "igration",
  "3716": " drive",
  "3717": " bal",
  "3718": " eventually",
  "3719": " easily",
  "3720": " Sim",
  "3721": " presidential",
  "3722": " correct",
  "3723": "pre",
  "3724": " Tor",
  "3725": " overall",
  "3726": " straight",
  "3727": "ken",
  "3728": " religious",
  "3729": "iny",
  "3730": " Super",
  "3731": " appeared",
  "3732": " truth",
  "3733": " note",
  "3734": " Wind",
  "3735": " Jer",
  "3736": " Here",
  "3737": "According",
  "3738": "change",
  "3739": " cat",
  "3740": " pus",
  "3741": " autom",
  "3742": " confir",
  "3743": " allows",
  "3744": " families",
  "3745": " executive",
  "3746": "New",
  "3747": " Australia",
  "3748": " rap",
  "3749": " ang",
  "3750": " unique",
  "3751": " expand",
  "3752": " customers",
  "3753": " virt",
  "3754": " individuals",
  "3755": " disp",
  "3756": " streng",
  "3757": " crime",
  "3758": " feature",
  "3759": " Smith",
  "3760": " cris",
  "3761": " illeg",
  "3762": " detail",
  "3763": " battle",
  "3764": "ressed",
  "3765": " Ben",
  "3766": " Air",
  "3767": "bum",
  "3768": "):",
  "3769": "Be",
  "3770": " frequ",
  "3771": " decades",
  "3772": " emb",
  "3773": " drop",
  "3774": " developed",
  "3775": " command",
  "3776": " firm",
  "3777": " La",
  "3778": " attract",
  "3779": "0000",
  "3780": " seemed",
  "3781": " advant",
  "3782": " challenge",
  "3783": " continues",
  "3784": " signed",
  "3785": "ville",
  "3786": "rated",
  "3787": " predict",
  "3788": " brother",
  "3789": " Syria",
  "3790": "45",
  "3791": " lif",
  "3792": "Un",
  "3793": " rates",
  "3794": " grad",
  "3795": " knows",
  "3796": "craft",
  "3797": " lines",
  "3798": " Apple",
  "3799": " Council",
  "3800": " International",
  "3801": "olic",
  "3802": " benefits",
  "3803": "aint",
  "3804": "IA",
  "3805": " rare",
  "3806": " successful",
  "3807": "ean",
  "3808": " kept",
  "3809": " Police",
  "3810": "27",
  "3811": " nice",
  "3812": " central",
  "3813": " knowledge",
  "3814": "lease",
  "3815": " Comp",
  "3816": " sto",
  "3817": " har",
  "3818": " apparent",
  "3819": " reached",
  "3820": " goals",
  "3821": " reform",
  "3822": "26",
  "3823": " 196",
  "3824": " promot",
  "3825": "Some",
  "3826": " Internet",
  "3827": " manager",
  "3828": " lic",
  "3829": " Earth",
  "3830": " analy",
  "3831": " spot",
  "3832": "ength",
  "3833": " gives",
  "3834": " uses",
  "3835": "ares",
  "3836": " mist",
  "3837": "Don",
  "3838": "band",
  "3839": " previously",
  "3840": " indic",
  "3841": "ki",
  "3842": "ET",
  "3843": " trust",
  "3844": " minor",
  "3845": "35",
  "3846": " noted",
  "3847": " Christian",
  "3848": "nown",
  "3849": " vac",
  "3850": "itely",
  "3851": " highly",
  "3852": "while",
  "3853": " manufact",
  "3854": " feet",
  "3855": " ideas",
  "3856": " cities",
  "3857": "term",
  "3858": " studies",
  "3859": "ado",
  "3860": " susp",
  "3861": " fully",
  "3862": "net",
  "3863": " door",
  "3864": " Up",
  "3865": " Star",
  "3866": "antly",
  "3867": " shooting",
  "3868": " reflect",
  "3869": " beaut",
  "3870": " Bel",
  "3871": "icago",
  "3872": "oti",
  "3873": " From",
  "3874": " projects",
  "3875": " Flor",
  "3876": " organiz",
  "3877": " emot",
  "3878": "iance",
  "3879": "iverse",
  "3880": " senior",
  "3881": " incident",
  "3882": "part",
  "3883": " Cup",
  "3884": " Govern",
  "3885": "wide",
  "3886": " programs",
  "3887": " calling",
  "3888": " Mac",
  "3889": " raised",
  "3890": "sey",
  "3891": " weapons",
  "3892": "BA",
  "3893": " altern",
  "3894": " larger",
  "3895": " greater",
  "3896": "board",
  "3897": " save",
  "3898": " peace",
  "3899": " favorite",
  "3900": " Tom",
  "3901": " gold",
  "3902": "mar",
  "3903": "Ar",
  "3904": "onents",
  "3905": " nuclear",
  "3906": " related",
  "3907": " Franc",
  "3908": " caused",
  "3909": "onent",
  "3910": " School",
  "3911": "ounds",
  "3912": "________",
  "3913": " places",
  "3914": "aith",
  "3915": " owners",
  "3916": "cul",
  "3917": " intelligence",
  "3918": " traff",
  "3919": "roll",
  "3920": " eth",
  "3921": " Rec",
  "3922": " researchers",
  "3923": " fighting",
  "3924": "28",
  "3925": "29",
  "3926": " primary",
  "3927": " voice",
  "3928": " George",
  "3929": " status",
  "3930": " patients",
  "3931": " employees",
  "3932": " Ant",
  "3933": " regular",
  "3934": "ipp",
  "3935": " criminal",
  "3936": "oles",
  "3937": " General",
  "3938": "rol",
  "3939": " fine",
  "3940": " eye",
  "3941": "iced",
  "3942": " Brown",
  "3943": "itude",
  "3944": " send",
  "3945": " rule",
  "3946": " green",
  "3947": " clearly",
  "3948": " rise",
  "3949": "CC",
  "3950": " prices",
  "3951": "Not",
  "3952": " liter",
  "3953": " Every",
  "3954": " 2007",
  "3955": "see",
  "3956": "icit",
  "3957": " Def",
  "3958": " Rob",
  "3959": " push",
  "3960": " High",
  "3961": "encies",
  "3962": " resources",
  "3963": "box",
  "3964": " arm",
  "3965": " spread",
  "3966": "secut",
  "3967": "ica",
  "3968": " female",
  "3969": "bon",
  "3970": "uana",
  "3971": "owers",
  "3972": "aud",
  "3973": " Union",
  "3974": "oday",
  "3975": "ya",
  "3976": "usion",
  "3977": "ingly",
  "3978": " crisis",
  "3979": " wait",
  "3980": " Bay",
  "3981": " creating",
  "3982": " sources",
  "3983": " haven",
  "3984": " Dis",
  "3985": " supposed",
  "3986": "lection",
  "3987": " activity",
  "3988": "iders",
  "3989": " Met",
  "3990": "ID",
  "3991": "21",
  "3992": " shut",
  "3993": "OM",
  "3994": "ocks",
  "3995": " district",
  "3996": "ategy",
  "3997": "iled",
  "3998": "igned",
  "3999": " claimed",
  "4000": " funding",
  "4001": " charges",
  "4002": " style",
  "4003": " spir",
  "4004": " conflic",
  "4005": " Lou",
  "4006": "vere",
  "4007": " pun",
  "4008": " policies",
  "4009": "ifying",
  "4010": " parties",
  "4011": ".'",
  "4012": " Sun",
  "4013": " telev",
  "4014": " laun",
  "4015": " spend",
  "4016": " integr",
  "4017": " names",
  "4018": " Gold",
  "4019": " lik",
  "4020": " Reg",
  "4021": "EO",
  "4022": "spect",
  "4023": " slight",
  "4024": "ijuana",
  "4025": " seeing",
  "4026": "EC",
  "4027": " normal",
  "4028": " agreement",
  "4029": " traditional",
  "4030": " hospital",
  "4031": "ona",
  "4032": " basic",
  "4033": " album",
  "4034": " believed",
  "4035": " ended",
  "4036": " wonder",
  "4037": " offered",
  "4038": " grand",
  "4039": " obser",
  "4040": " happens",
  "4041": "earch",
  "4042": " Florida",
  "4043": "ection",
  "4044": " impl",
  "4045": " acqu",
  "4046": " options",
  "4047": "ipped",
  "4048": "Sc",
  "4049": " minister",
  "4050": " birth",
  "4051": "90",
  "4052": " whom",
  "4053": " beat",
  "4054": " marriage",
  "4055": " adop",
  "4056": " Chicago",
  "4057": " jump",
  "4058": "dom",
  "4059": " propos",
  "4060": " print",
  "4061": "aked",
  "4062": "SA",
  "4063": "500",
  "4064": " scen",
  "4065": " Germany",
  "4066": " adding",
  "4067": "mark",
  "4068": " Scott",
  "4069": "que",
  "4070": " street",
  "4071": " qual",
  "4072": " Bre",
  "4073": "ING",
  "4074": " insurance",
  "4075": "inger",
  "4076": " trou",
  "4077": " AP",
  "4078": " Arab",
  "4079": "ags",
  "4080": " beg",
  "4081": " assault",
  "4082": " revealed",
  "4083": " leaving",
  "4084": " Most",
  "4085": " Ber",
  "4086": " rank",
  "4087": " ensure",
  "4088": " willing",
  "4089": "70",
  "4090": " uns",
  "4091": " According",
  "4092": " arrested",
  "4093": " 2006",
  "4094": "roid",
  "4095": " Hillary",
  "4096": " section",
  "4097": " credit",
  "4098": " brief",
  "4099": " ir",
  "4100": " perm",
  "4101": " appl",
  "4102": "www",
  "4103": ".â",
  "4104": " unc",
  "4105": " determin",
  "4106": " records",
  "4107": " mostly",
  "4108": "upp",
  "4109": "uman",
  "4110": " enforce",
  "4111": " Trans",
  "4112": " wat",
  "4113": " freedom",
  "4114": " Oh",
  "4115": " station",
  "4116": " behavior",
  "4117": " authorities",
  "4118": "â,",
  "4119": " cry",
  "4120": "OU",
  "4121": " mount",
  "4122": " Health",
  "4123": " Alex",
  "4124": " massive",
  "4125": " temper",
  "4126": "aby",
  "4127": " miles",
  "4128": "EL",
  "4129": " absolute",
  "4130": " produce",
  "4131": "istry",
  "4132": " Port",
  "4133": " actual",
  "4134": " pattern",
  "4135": " concerns",
  "4136": " enem",
  "4137": " tend",
  "4138": " wild",
  "4139": "pri",
  "4140": " values",
  "4141": " >",
  "4142": " England",
  "4143": " Mo",
  "4144": " born",
  "4145": " fat",
  "4146": "acing",
  "4147": " drink",
  "4148": " application",
  "4149": "alse",
  "4150": "Pro",
  "4151": "pen",
  "4152": " plant",
  "4153": " commer",
  "4154": " Cr",
  "4155": "Here",
  "4156": " posted",
  "4157": " Johnson",
  "4158": "orial",
  "4159": " offers",
  "4160": " celebr",
  "4161": " advoc",
  "4162": "ront",
  "4163": " whatever",
  "4164": " Let",
  "4165": "cience",
  "4166": "cher",
  "4167": " mechan",
  "4168": " Secret",
  "4169": "ribution",
  "4170": " runs",
  "4171": " male",
  "4172": " weekend",
  "4173": "no",
  "4174": "gen",
  "4175": "100",
  "4176": " feeling",
  "4177": " picture",
  "4178": " produced",
  "4179": " choose",
  "4180": " kick",
  "4181": " independent",
  "4182": " train",
  "4183": "rian",
  "4184": " Mag",
  "4185": " Well",
  "4186": "soft",
  "4187": " learned",
  "4188": " theory",
  "4189": " commit",
  "4190": " belief",
  "4191": " showing",
  "4192": " dire",
  "4193": "ription",
  "4194": "Image",
  "4195": " Why",
  "4196": "uries",
  "4197": " adult",
  "4198": " weight",
  "4199": " mer",
  "4200": "uild",
  "4201": " critical",
  "4202": " coverage",
  "4203": "Bl",
  "4204": " lawy",
  "4205": "outhern",
  "4206": " teac",
  "4207": " images",
  "4208": " dollars",
  "4209": " enter",
  "4210": " debt",
  "4211": "Ð¸",
  "4212": " negoti",
  "4213": " cars",
  "4214": " Press",
  "4215": "33",
  "4216": " legislation",
  "4217": "arliam",
  "4218": " mur",
  "4219": " initial",
  "4220": " Sam",
  "4221": " residents",
  "4222": " Western",
  "4223": " Ham",
  "4224": " strategy",
  "4225": " occas",
  "4226": " judge",
  "4227": "rav",
  "4228": " EU",
  "4229": " proposed",
  "4230": " novel",
  "4231": "estic",
  "4232": " lose",
  "4233": " mission",
  "4234": " NFL",
  "4235": " dream",
  "4236": " benefit",
  "4237": " Law",
  "4238": " condition",
  "4239": " Wall",
  "4240": "ram",
  "4241": " fit",
  "4242": " digital",
  "4243": "ented",
  "4244": "orthern",
  "4245": " France",
  "4246": "icial",
  "4247": " influence",
  "4248": " etc",
  "4249": " advantage",
  "4250": " daily",
  "4251": " establish",
  "4252": "bert",
  "4253": " restrict",
  "4254": "mine",
  "4255": "ada",
  "4256": " devices",
  "4257": " protest",
  "4258": "ords",
  "4259": " Our",
  "4260": "cell",
  "4261": " brand",
  "4262": " confirmed",
  "4263": " Get",
  "4264": " operations",
  "4265": " Phil",
  "4266": "arliament",
  "4267": "illing",
  "4268": " responsible",
  "4269": " replace",
  "4270": "ugg",
  "4271": " camera",
  "4272": " cru",
  "4273": "ghan",
  "4274": " bur",
  "4275": " solution",
  "4276": " chem",
  "4277": "BS",
  "4278": " vill",
  "4279": " learning",
  "4280": " Committee",
  "4281": " provides",
  "4282": " charged",
  "4283": "http",
  "4284": " Stud",
  "4285": " effective",
  "4286": " asking",
  "4287": "ae",
  "4288": "icians",
  "4289": " map",
  "4290": "oms",
  "4291": " People",
  "4292": "However",
  "4293": " opening",
  "4294": " explained",
  "4295": " Mike",
  "4296": " highest",
  "4297": " chair",
  "4298": "Ex",
  "4299": "rial",
  "4300": "These",
  "4301": " generally",
  "4302": " basis",
  "4303": " =>",
  "4304": " trial",
  "4305": " hundreds",
  "4306": " 31",
  "4307": "point",
  "4308": " agreed",
  "4309": " opinion",
  "4310": " install",
  "4311": "umn",
  "4312": "ocr",
  "4313": "ears",
  "4314": " types",
  "4315": "Ñ",
  "4316": " announce",
  "4317": "azing",
  "4318": "za",
  "4319": "iller",
  "4320": " Lab",
  "4321": " worse",
  "4322": " interested",
  "4323": " defend",
  "4324": " Mil",
  "4325": " heavy",
  "4326": " Great",
  "4327": " communities",
  "4328": " electric",
  "4329": " Mal",
  "4330": " 35",
  "4331": "rate",
  "4332": " partners",
  "4333": " easier",
  "4334": "iling",
  "4335": " negative",
  "4336": " reject",
  "4337": " onto",
  "4338": " ge",
  "4339": " disease",
  "4340": " victory",
  "4341": " associated",
  "4342": " Francis",
  "4343": "ipe",
  "4344": " border",
  "4345": "rig",
  "4346": "ties",
  "4347": " Ter",
  "4348": " Ro",
  "4349": " bottom",
  "4350": " Justice",
  "4351": " television",
  "4352": " putting",
  "4353": "ortunately",
  "4354": " understanding",
  "4355": " Found",
  "4356": " double",
  "4357": " housing",
  "4358": " marijuana",
  "4359": " hero",
  "4360": "omas",
  "4361": "coming",
  "4362": "ading",
  "4363": " limit",
  "4364": " earth",
  "4365": "44",
  "4366": " rat",
  "4367": " becomes",
  "4368": " fresh",
  "4369": " accused",
  "4370": "cont",
  "4371": " Korea",
  "4372": " Bush",
  "4373": " episode",
  "4374": " Office",
  "4375": " sleep",
  "4376": "ography",
  "4377": "ios",
  "4378": "Con",
  "4379": " core",
  "4380": "Get",
  "4381": " internet",
  "4382": " memory",
  "4383": " Div",
  "4384": "icip",
  "4385": "witch",
  "4386": " becoming",
  "4387": " bed",
  "4388": " controvers",
  "4389": " gay",
  "4390": " frame",
  "4391": " PC",
  "4392": "ste",
  "4393": " solid",
  "4394": " opposition",
  "4395": " Jim",
  "4396": " scientists",
  "4397": " millions",
  "4398": "IL",
  "4399": " strik",
  "4400": "level",
  "4401": " Because",
  "4402": " wealth",
  "4403": " reduce",
  "4404": " investment",
  "4405": " defe",
  "4406": " Other",
  "4407": " Los",
  "4408": " location",
  "4409": "win",
  "4410": " extremely",
  "4411": " competition",
  "4412": " Liber",
  "4413": " thus",
  "4414": " nine",
  "4415": "iliar",
  "4416": " winning",
  "4417": " labor",
  "4418": " surround",
  "4419": " Islamic",
  "4420": " Canadian",
  "4421": " Bit",
  "4422": " opened",
  "4423": " tick",
  "4424": " served",
  "4425": "andom",
  "4426": "scrib",
  "4427": "ih",
  "4428": " 90",
  "4429": " incred",
  "4430": " Que",
  "4431": "ours",
  "4432": " mobile",
  "4433": " assum",
  "4434": "oly",
  "4435": "akistan",
  "4436": "vest",
  "4437": " join",
  "4438": " Many",
  "4439": "iful",
  "4440": "olf",
  "4441": " destroy",
  "4442": "miss",
  "4443": " audience",
  "4444": "irgin",
  "4445": "GB",
  "4446": " machine",
  "4447": " north",
  "4448": "icrosoft",
  "4449": " active",
  "4450": " supporters",
  "4451": " max",
  "4452": " 00",
  "4453": "32",
  "4454": "lant",
  "4455": " separate",
  "4456": "36",
  "4457": " issued",
  "4458": " achieve",
  "4459": "iation",
  "4460": " restaur",
  "4461": " Art",
  "4462": "vention",
  "4463": "rey",
  "4464": " ded",
  "4465": "well",
  "4466": "known",
  "4467": " shared",
  "4468": " drugs",
  "4469": " resist",
  "4470": " Institute",
  "4471": "â¢",
  "4472": "FC",
  "4473": " explain",
  "4474": " decade",
  "4475": " illegal",
  "4476": " harm",
  "4477": "ius",
  "4478": " purpose",
  "4479": " faith",
  "4480": " watching",
  "4481": " spoke",
  "4482": " sites",
  "4483": " UN",
  "4484": " 70",
  "4485": " Mod",
  "4486": " south",
  "4487": " Jones",
  "4488": " views",
  "4489": " Hall",
  "4490": "lished",
  "4491": " department",
  "4492": " comfort",
  "4493": "istics",
  "4494": " 80",
  "4495": " church",
  "4496": "aks",
  "4497": " Del",
  "4498": "igrants",
  "4499": " Mad",
  "4500": " ship",
  "4501": " ran",
  "4502": "edy",
  "4503": " Commission",
  "4504": "ey",
  "4505": " management",
  "4506": "ouston",
  "4507": " Windows",
  "4508": "acity",
  "4509": " Since",
  "4510": "works",
  "4511": "imb",
  "4512": "ici",
  "4513": "â",
  "4514": "ario",
  "4515": " existing",
  "4516": " Security",
  "4517": " professional",
  "4518": " floor",
  "4519": " Uk",
  "4520": " transport",
  "4521": " aspect",
  "4522": "ady",
  "4523": " Robert",
  "4524": " doubt",
  "4525": " Miss",
  "4526": "ulf",
  "4527": " serve",
  "4528": " purs",
  "4529": " Palest",
  "4530": " FBI",
  "4531": " Add",
  "4532": " background",
  "4533": "asy",
  "4534": " returned",
  "4535": " finding",
  "4536": " Att",
  "4537": " neighbor",
  "4538": " spl",
  "4539": " cash",
  "4540": " Chris",
  "4541": "atically",
  "4542": "NN",
  "4543": "inate",
  "4544": "azon",
  "4545": " generation",
  "4546": " trend",
  "4547": " hearing",
  "4548": "spe",
  "4549": "resp",
  "4550": " kid",
  "4551": " leadership",
  "4552": " Angeles",
  "4553": "Americ",
  "4554": " unlike",
  "4555": "going",
  "4556": " plays",
  "4557": " transfer",
  "4558": " categ",
  "4559": "house",
  "4560": " surface",
  "4561": " definitely",
  "4562": " concerned",
  "4563": " witness",
  "4564": " driving",
  "4565": " Afghan",
  "4566": " structure",
  "4567": " documents",
  "4568": "ctors",
  "4569": " argument",
  "4570": "lands",
  "4571": " injury",
  "4572": "annel",
  "4573": "Ñ",
  "4574": " guard",
  "4575": " launched",
  "4576": "DA",
  "4577": " sports",
  "4578": " Your",
  "4579": "rick",
  "4580": " load",
  "4581": "PS",
  "4582": " dangerous",
  "4583": " bomb",
  "4584": " Like",
  "4585": " African",
  "4586": "odes",
  "4587": " cards",
  "4588": " farm",
  "4589": "udd",
  "4590": "Mr",
  "4591": " teach",
  "4592": " vs",
  "4593": " afford",
  "4594": " fuel",
  "4595": " Sup",
  "4596": " san",
  "4597": "ampionship",
  "4598": " Big",
  "4599": "icy",
  "4600": " decisions",
  "4601": " Sanders",
  "4602": "zen",
  "4603": "ait",
  "4604": " discovered",
  "4605": "eah",
  "4606": " coal",
  "4607": " vehicle",
  "4608": "which",
  "4609": "ulated",
  "4610": "met",
  "4611": " caught",
  "4612": "38",
  "4613": " Rom",
  "4614": " ;",
  "4615": " Dist",
  "4616": " micro",
  "4617": " Commun",
  "4618": " items",
  "4619": " appeal",
  "4620": " committee",
  "4621": "eline",
  "4622": " direction",
  "4623": " refere",
  "4624": " blue",
  "4625": "!!",
  "4626": " photo",
  "4627": " sun",
  "4628": " telling",
  "4629": " que",
  "4630": " murder",
  "4631": " testing",
  "4632": " Church",
  "4633": "anted",
  "4634": " Africa",
  "4635": " nor",
  "4636": " holding",
  "4637": "OL",
  "4638": "inct",
  "4639": "ference",
  "4640": " largely",
  "4641": "ibrary",
  "4642": " supported",
  "4643": " traffic",
  "4644": " react",
  "4645": "orrow",
  "4646": " wel",
  "4647": " Rock",
  "4648": " notice",
  "4649": " amb",
  "4650": "rd",
  "4651": "andon",
  "4652": " closed",
  "4653": " Wil",
  "4654": "oyal",
  "4655": " repeated",
  "4656": " daughter",
  "4657": " candidates",
  "4658": " suggested",
  "4659": " radio",
  "4660": " Bank",
  "4661": "arant",
  "4662": "rad",
  "4663": "but",
  "4664": " measures",
  "4665": " Mexico",
  "4666": "49",
  "4667": " worst",
  "4668": " Mat",
  "4669": " Jewish",
  "4670": "serv",
  "4671": " context",
  "4672": " believes",
  "4673": " die",
  "4674": " scale",
  "4675": " conservative",
  "4676": "lor",
  "4677": " Inc",
  "4678": "agn",
  "4679": "75",
  "4680": " Louis",
  "4681": " commercial",
  "4682": " tools",
  "4683": "iest",
  "4684": " Carol",
  "4685": " girls",
  "4686": " notes",
  "4687": " allowing",
  "4688": " planet",
  "4689": " Tre",
  "4690": " Sl",
  "4691": " smaller",
  "4692": " Ir",
  "4693": " Cap",
  "4694": " older",
  "4695": " THE",
  "4696": "mail",
  "4697": " Pre",
  "4698": "ander",
  "4699": " victims",
  "4700": " entirely",
  "4701": " strength",
  "4702": " animals",
  "4703": "enses",
  "4704": " Ac",
  "4705": "overy",
  "4706": " waiting",
  "4707": "phone",
  "4708": " Pakistan",
  "4709": "hem",
  "4710": "equ",
  "4711": " graph",
  "4712": " exerc",
  "4713": "PA",
  "4714": " interests",
  "4715": " ur",
  "4716": " deliver",
  "4717": " compar",
  "4718": " requires",
  "4719": "Ñ",
  "4720": " guess",
  "4721": "ï¼",
  "4722": " survey",
  "4723": " Are",
  "4724": " raise",
  "4725": " der",
  "4726": " Over",
  "4727": "how",
  "4728": " unit",
  "4729": "tered",
  "4730": "izes",
  "4731": "itable",
  "4732": " activities",
  "4733": "Our",
  "4734": " eat",
  "4735": " Association",
  "4736": " fourth",
  "4737": "season",
  "4738": " mentioned",
  "4739": " Game",
  "4740": " 195",
  "4741": " businesses",
  "4742": " 127",
  "4743": "igan",
  "4744": " hack",
  "4745": " false",
  "4746": " Ty",
  "4747": " cook",
  "4748": "owl",
  "4749": " length",
  "4750": "isf",
  "4751": "!â",
  "4752": " task",
  "4753": " consequ",
  "4754": " cancer",
  "4755": " truly",
  "4756": " Step",
  "4757": " instance",
  "4758": " trip",
  "4759": " joined",
  "4760": " Ukrain",
  "4761": " Direct",
  "4762": " species",
  "4763": " attend",
  "4764": "nel",
  "4765": " stated",
  "4766": " Fore",
  "4767": " Ev",
  "4768": "do",
  "4769": " hair",
  "4770": "48",
  "4771": " Kh",
  "4772": " placed",
  "4773": " managed",
  "4774": "night",
  "4775": "ception",
  "4776": "inter",
  "4777": " Instead",
  "4778": "hens",
  "4779": " please",
  "4780": " enforcement",
  "4781": "anging",
  "4782": " annual",
  "4783": " Houston",
  "4784": " models",
  "4785": " exchange",
  "4786": " Supreme",
  "4787": " Jeff",
  "4788": "kins",
  "4789": " focused",
  "4790": " driver",
  "4791": " Ver",
  "4792": " rough",
  "4793": "oted",
  "4794": " strateg",
  "4795": " pet",
  "4796": " Jose",
  "4797": " removed",
  "4798": " Army",
  "4799": " Jes",
  "4800": " stopped",
  "4801": " accur",
  "4802": " Pri",
  "4803": " Japanese",
  "4804": " //",
  "4805": " gain",
  "4806": " planning",
  "4807": "cknow",
  "4808": "ulate",
  "4809": " mental",
  "4810": "range",
  "4811": " Mer",
  "4812": " assess",
  "4813": "ossible",
  "4814": "ighter",
  "4815": " initi",
  "4816": " hus",
  "4817": " Sil",
  "4818": " Jud",
  "4819": " phil",
  "4820": " detect",
  "4821": "semb",
  "4822": " stock",
  "4823": "icon",
  "4824": " Fin",
  "4825": " ice",
  "4826": "lege",
  "4827": " GOP",
  "4828": "aren",
  "4829": " spokesman",
  "4830": "onto",
  "4831": "EM",
  "4832": "ocracy",
  "4833": "ructure",
  "4834": " established",
  "4835": " failure",
  "4836": " conversation",
  "4837": " hasn",
  "4838": " beer",
  "4839": " bul",
  "4840": "ano",
  "4841": " catch",
  "4842": " contain",
  "4843": "outs",
  "4844": "lig",
  "4845": " setting",
  "4846": " missing",
  "4847": " 2005",
  "4848": "â",
  "4849": "uct",
  "4850": "anda",
  "4851": "CH",
  "4852": " committed",
  "4853": "More",
  "4854": " recommend",
  "4855": " defensive",
  "4856": " Rub",
  "4857": " CEO",
  "4858": " arrived",
  "4859": " fant",
  "4860": " offensive",
  "4861": "azine",
  "4862": "37",
  "4863": " appropri",
  "4864": " Pet",
  "4865": "itz",
  "4866": " providing",
  "4867": " download",
  "4868": "ancy",
  "4869": " conclud",
  "4870": "uke",
  "4871": "NA",
  "4872": " sch",
  "4873": " presence",
  "4874": " tells",
  "4875": " introduced",
  "4876": " Although",
  "4877": " 2018",
  "4878": "ronic",
  "4879": " taxes",
  "4880": "hi",
  "4881": " tough",
  "4882": "Trump",
  "4883": " sequ",
  "4884": "Read",
  "4885": " familiar",
  "4886": " hate",
  "4887": " construction",
  "4888": "uzz",
  "4889": "place",
  "4890": " newsp",
  "4891": " killing",
  "4892": " finished",
  "4893": " Britain",
  "4894": "wing",
  "4895": " useful",
  "4896": " univers",
  "4897": " partner",
  "4898": "isation",
  "4899": " obvious",
  "4900": "cks",
  "4901": " protection",
  "4902": "ribute",
  "4903": "awn",
  "4904": "stream",
  "4905": "uters",
  "4906": " circum",
  "4907": " Yes",
  "4908": "tained",
  "4909": "real",
  "4910": " exclus",
  "4911": " sust",
  "4912": " keeping",
  "4913": " gender",
  "4914": " window",
  "4915": " update",
  "4916": " aggress",
  "4917": " Group",
  "4918": " justice",
  "4919": " identity",
  "4920": "RA",
  "4921": " veter",
  "4922": " discussion",
  "4923": " tim",
  "4924": " stick",
  "4925": " relatively",
  "4926": " suggests",
  "4927": "olly",
  "4928": " Virgin",
  "4929": " seconds",
  "4930": "itutional",
  "4931": "hedul",
  "4932": " otherwise",
  "4933": ",'",
  "4934": " acknow",
  "4935": " Tim",
  "4936": " Fox",
  "4937": "ource",
  "4938": "odies",
  "4939": " Thomas",
  "4940": " cuts",
  "4941": "what",
  "4942": " Israeli",
  "4943": " emerg",
  "4944": "formation",
  "4945": " skills",
  "4946": "apped",
  "4947": " abuse",
  "4948": " transl",
  "4949": "ka",
  "4950": " Microsoft",
  "4951": " Service",
  "4952": " amazing",
  "4953": "vant",
  "4954": " homes",
  "4955": " click",
  "4956": " Leg",
  "4957": "ola",
  "4958": "dden",
  "4959": " thanks",
  "4960": " speaking",
  "4961": "ym",
  "4962": "vis",
  "4963": " therefore",
  "4964": "anned",
  "4965": "aded",
  "4966": " organizations",
  "4967": " connection",
  "4968": " supply",
  "4969": "HL",
  "4970": " prefer",
  "4971": " union",
  "4972": " identified",
  "4973": " healthy",
  "4974": " depend",
  "4975": " Richard",
  "4976": " units",
  "4977": "Ã¡",
  "4978": "la",
  "4979": " Ryan",
  "4980": " Photo",
  "4981": " wish",
  "4982": " decide",
  "4983": " Prof",
  "4984": " 45",
  "4985": "eless",
  "4986": "ocal",
  "4987": " server",
  "4988": " possibly",
  "4989": "onym",
  "4990": " bigger",
  "4991": "rees",
  "4992": " sides",
  "4993": " developers",
  "4994": " Char",
  "4995": " elements",
  "4996": "Ð¾Ð",
  "4997": "ups",
  "4998": "prof",
  "4999": "gers",
  "5000": " photos",
  "5001": "with",
  "5002": "ga",
  "5003": "AA",
  "5004": " award",
  "5005": " yards",
  "5006": " pair",
  "5007": " operation",
  "5008": "agues",
  "5009": " occup",
  "5010": "47",
  "5011": " Mont",
  "5012": "isted",
  "5013": " Nor",
  "5014": " Const",
  "5015": " solar",
  "5016": " Research",
  "5017": "bre",
  "5018": " Joe",
  "5019": " Central",
  "5020": " slightly",
  "5021": " files",
  "5022": "ansion",
  "5023": " feels",
  "5024": " Sub",
  "5025": "gl",
  "5026": "ancing",
  "5027": "ynam",
  "5028": "ologies",
  "5029": " 2000",
  "5030": " Mars",
  "5031": " religion",
  "5032": " paying",
  "5033": " none",
  "5034": " steps",
  "5035": "makers",
  "5036": " sudden",
  "5037": " remind",
  "5038": " figures",
  "5039": "Photo",
  "5040": " dropped",
  "5041": "osure",
  "5042": " owner",
  "5043": " cells",
  "5044": " Team",
  "5045": "Why",
  "5046": "arks",
  "5047": " tweet",
  "5048": "SP",
  "5049": " starts",
  "5050": "Last",
  "5051": "icide",
  "5052": " worry",
  "5053": " Mos",
  "5054": " Jon",
  "5055": " Sur",
  "5056": "ucky",
  "5057": " prospect",
  "5058": " Medic",
  "5059": " 32",
  "5060": " conflict",
  "5061": " Images",
  "5062": "olit",
  "5063": " domestic",
  "5064": "01",
  "5065": " academ",
  "5066": " sport",
  "5067": " collection",
  "5068": "verse",
  "5069": "related",
  "5070": "osen",
  "5071": " multi",
  "5072": " Frank",
  "5073": "mas",
  "5074": "ula",
  "5075": " refuge",
  "5076": " Two",
  "5077": " error",
  "5078": " Secretary",
  "5079": "oston",
  "5080": "imal",
  "5081": " helping",
  "5082": "].",
  "5083": " variety",
  "5084": " princ",
  "5085": "39",
  "5086": " scientific",
  "5087": " degree",
  "5088": " changing",
  "5089": " Sal",
  "5090": " Government",
  "5091": " strike",
  "5092": "den",
  "5093": "aven",
  "5094": " Prime",
  "5095": "roud",
  "5096": " appoint",
  "5097": "ava",
  "5098": " immigration",
  "5099": " fellow",
  "5100": " pil",
  "5101": "gar",
  "5102": " mere",
  "5103": " carried",
  "5104": "gypt",
  "5105": "idering",
  "5106": " Their",
  "5107": " Gree",
  "5108": "kin",
  "5109": "Pl",
  "5110": " spirit",
  "5111": "pm",
  "5112": " planned",
  "5113": " fif",
  "5114": "Go",
  "5115": " commission",
  "5116": " husband",
  "5117": " Den",
  "5118": " Ari",
  "5119": "46",
  "5120": " ath",
  "5121": " Web",
  "5122": " Mur",
  "5123": " Lee",
  "5124": " Android",
  "5125": " accounts",
  "5126": " heat",
  "5127": " equip",
  "5128": " balance",
  "5129": " happening",
  "5130": " appre",
  "5131": "ipping",
  "5132": " River",
  "5133": " Det",
  "5134": " Out",
  "5135": " filed",
  "5136": " professor",
  "5137": "erous",
  "5138": " apparently",
  "5139": " Mary",
  "5140": "acks",
  "5141": " regarding",
  "5142": " weak",
  "5143": " Last",
  "5144": " honest",
  "5145": " Toronto",
  "5146": " Inter",
  "5147": " spect",
  "5148": "rency",
  "5149": " Australian",
  "5150": " Palestin",
  "5151": " banks",
  "5152": " Martin",
  "5153": " Pac",
  "5154": "ulner",
  "5155": " applications",
  "5156": " Atlant",
  "5157": " Division",
  "5158": " increasingly",
  "5159": "sen",
  "5160": " mut",
  "5161": " Time",
  "5162": " talks",
  "5163": " funds",
  "5164": "ket",
  "5165": " schedul",
  "5166": " vehicles",
  "5167": " tests",
  "5168": " teen",
  "5169": "itect",
  "5170": "Des",
  "5171": " roll",
  "5172": "uate",
  "5173": " corner",
  "5174": "ht",
  "5175": " army",
  "5176": "ashed",
  "5177": "coh",
  "5178": " deploy",
  "5179": " Also",
  "5180": " markets",
  "5181": " Camp",
  "5182": "bour",
  "5183": "Le",
  "5184": " Amazon",
  "5185": "cious",
  "5186": " philos",
  "5187": "ocol",
  "5188": " lived",
  "5189": " ST",
  "5190": " 36",
  "5191": "hand",
  "5192": " fle",
  "5193": " rich",
  "5194": " Good",
  "5195": "31",
  "5196": " tast",
  "5197": " hyp",
  "5198": " Foundation",
  "5199": " twice",
  "5200": " skin",
  "5201": "icted",
  "5202": "ias",
  "5203": " Cath",
  "5204": "illa",
  "5205": "gn",
  "5206": "endment",
  "5207": " troops",
  "5208": " tack",
  "5209": "isher",
  "5210": " apply",
  "5211": " Us",
  "5212": " vast",
  "5213": " soldiers",
  "5214": " regist",
  "5215": " occurred",
  "5216": " Power",
  "5217": "rastructure",
  "5218": "ros",
  "5219": "alls",
  "5220": " environmental",
  "5221": " tight",
  "5222": " standing",
  "5223": " sounds",
  "5224": " Dec",
  "5225": " flight",
  "5226": " helps",
  "5227": " developing",
  "5228": " scr",
  "5229": "----------------",
  "5230": " sitting",
  "5231": " â ",
  "5232": "apers",
  "5233": " fol",
  "5234": " streets",
  "5235": " losing",
  "5236": "ayer",
  "5237": " clin",
  "5238": "Ab",
  "5239": " shall",
  "5240": " innov",
  "5241": "uster",
  "5242": " writer",
  "5243": " vision",
  "5244": " batter",
  "5245": " turns",
  "5246": "ania",
  "5247": "ader",
  "5248": " random",
  "5249": "under",
  "5250": "ores",
  "5251": " Bur",
  "5252": " imagine",
  "5253": " impossible",
  "5254": " Fire",
  "5255": " experts",
  "5256": "IV",
  "5257": " neighborhood",
  "5258": "ION",
  "5259": " ultimately",
  "5260": " potentially",
  "5261": "UT",
  "5262": " interact",
  "5263": " Ã",
  "5264": " convention",
  "5265": " authority",
  "5266": " attorney",
  "5267": " ì",
  "5268": "ils",
  "5269": " MP",
  "5270": " greatest",
  "5271": "anche",
  "5272": " Those",
  "5273": "\":",
  "5274": " Under",
  "5275": " humans",
  "5276": " ce",
  "5277": "oving",
  "5278": " beautiful",
  "5279": " absolutely",
  "5280": "55",
  "5281": " standards",
  "5282": " seeking",
  "5283": " Francisco",
  "5284": " presented",
  "5285": " dat",
  "5286": "run",
  "5287": "abb",
  "5288": " pieces",
  "5289": " guarant",
  "5290": " forms",
  "5291": " faster",
  "5292": " NBA",
  "5293": "ruit",
  "5294": " expensive",
  "5295": " Put",
  "5296": "From",
  "5297": "oom",
  "5298": "gu",
  "5299": " territ",
  "5300": " stars",
  "5301": " refused",
  "5302": "iser",
  "5303": " cold",
  "5304": "ââ",
  "5305": " signs",
  "5306": " pit",
  "5307": " operating",
  "5308": " capacity",
  "5309": "state",
  "5310": " alternative",
  "5311": " rid",
  "5312": " 2004",
  "5313": " youth",
  "5314": " covered",
  "5315": "ressive",
  "5316": " equipment",
  "5317": "atures",
  "5318": " apart",
  "5319": " brow",
  "5320": " crew",
  "5321": "othes",
  "5322": " Nov",
  "5323": " voted",
  "5324": " Jo",
  "5325": " odd",
  "5326": " possibility",
  "5327": " coast",
  "5328": "och",
  "5329": " broken",
  "5330": "adium",
  "5331": "Of",
  "5332": "!\"",
  "5333": " sea",
  "5334": " script",
  "5335": " Carolina",
  "5336": " determine",
  "5337": "ashion",
  "5338": " LA",
  "5339": "etic",
  "5340": " retail",
  "5341": " adjust",
  "5342": " perspect",
  "5343": "Even",
  "5344": " elections",
  "5345": " unless",
  "5346": " responsibility",
  "5347": " famous",
  "5348": " nar",
  "5349": "fe",
  "5350": " arms",
  "5351": "issions",
  "5352": "ighters",
  "5353": "IP",
  "5354": " seasons",
  "5355": " corporate",
  "5356": " hurt",
  "5357": " revolution",
  "5358": "idden",
  "5359": " closer",
  "5360": "enced",
  "5361": "Just",
  "5362": " stress",
  "5363": " proposal",
  "5364": " Jackson",
  "5365": "lets",
  "5366": " IN",
  "5367": " trail",
  "5368": " internal",
  "5369": "IM",
  "5370": " expressed",
  "5371": "rible",
  "5372": " seat",
  "5373": " din",
  "5374": " Sol",
  "5375": " estimated",
  "5376": "ini",
  "5377": " surprise",
  "5378": " Public",
  "5379": " Hy",
  "5380": " College",
  "5381": " animal",
  "5382": "terday",
  "5383": "03",
  "5384": " Boston",
  "5385": " pointed",
  "5386": " indeed",
  "5387": "icate",
  "5388": "SS",
  "5389": "OW",
  "5390": "()",
  "5391": " percentage",
  "5392": " Syrian",
  "5393": " carbon",
  "5394": " Williams",
  "5395": " Guard",
  "5396": "person",
  "5397": " ruling",
  "5398": " hun",
  "5399": "ato",
  "5400": " rent",
  "5401": "otic",
  "5402": " conclus",
  "5403": " gar",
  "5404": "astern",
  "5405": " vulner",
  "5406": " weapon",
  "5407": " appearance",
  "5408": " Bitcoin",
  "5409": "lymp",
  "5410": " sector",
  "5411": " Bern",
  "5412": "stein",
  "5413": " ton",
  "5414": " Once",
  "5415": " Egypt",
  "5416": " governments",
  "5417": " Journal",
  "5418": "phas",
  "5419": " motiv",
  "5420": "urban",
  "5421": " specifically",
  "5422": " factors",
  "5423": " Sant",
  "5424": " trig",
  "5425": "date",
  "5426": "TA",
  "5427": " rapid",
  "5428": " expert",
  "5429": " bringing",
  "5430": " District",
  "5431": " distance",
  "5432": " Conserv",
  "5433": " prove",
  "5434": " Daily",
  "5435": "ureau",
  "5436": "34",
  "5437": " agencies",
  "5438": "cean",
  "5439": "edia",
  "5440": " baby",
  "5441": " videos",
  "5442": " insp",
  "5443": " heav",
  "5444": " sale",
  "5445": " located",
  "5446": " herself",
  "5447": "pret",
  "5448": " selling",
  "5449": " Book",
  "5450": "Every",
  "5451": " plenty",
  "5452": " instit",
  "5453": "cohol",
  "5454": " cultural",
  "5455": " intended",
  "5456": "noon",
  "5457": " grew",
  "5458": "Sp",
  "5459": " infrastructure",
  "5460": " experiment",
  "5461": " AM",
  "5462": "road",
  "5463": "ller",
  "5464": " agent",
  "5465": " Mel",
  "5466": "look",
  "5467": " marg",
  "5468": "Let",
  "5469": " subs",
  "5470": " reaction",
  "5471": "Up",
  "5472": "II",
  "5473": " revenue",
  "5474": " stret",
  "5475": " elim",
  "5476": " jail",
  "5477": " dim",
  "5478": " argued",
  "5479": " Virginia",
  "5480": "rier",
  "5481": " maintain",
  "5482": " handle",
  "5483": " determined",
  "5484": " bought",
  "5485": " Road",
  "5486": " methods",
  "5487": " Tra",
  "5488": " offering",
  "5489": " significantly",
  "5490": " copyright",
  "5491": "arp",
  "5492": " fired",
  "5493": " dram",
  "5494": " visual",
  "5495": " Steve",
  "5496": " remained",
  "5497": " flow",
  "5498": " votes",
  "5499": " equal",
  "5500": "cel",
  "5501": "CL",
  "5502": " elected",
  "5503": "eder",
  "5504": " 500",
  "5505": " university",
  "5506": "uration",
  "5507": " era",
  "5508": "Since",
  "5509": " breat",
  "5510": "anish",
  "5511": "IG",
  "5512": " Middle",
  "5513": "mosp",
  "5514": " satisf",
  "5515": " Federal",
  "5516": " secure",
  "5517": " finish",
  "5518": " ast",
  "5519": " Afghanistan",
  "5520": "lines",
  "5521": " wood",
  "5522": "angers",
  "5523": "uts",
  "5524": "essions",
  "5525": " regime",
  "5526": " consult",
  "5527": "esters",
  "5528": " weren",
  "5529": " wearing",
  "5530": " council",
  "5531": " chemical",
  "5532": " boost",
  "5533": " USA",
  "5534": " criticism",
  "5535": "orage",
  "5536": " prosecut",
  "5537": " column",
  "5538": " mal",
  "5539": " upgr",
  "5540": " bound",
  "5541": " experienced",
  "5542": " completed",
  "5543": "standing",
  "5544": " positions",
  "5545": "iat",
  "5546": " obviously",
  "5547": " remove",
  "5548": " Mass",
  "5549": "TV",
  "5550": " Bet",
  "5551": " films",
  "5552": " broke",
  "5553": " conducted",
  "5554": " Olymp",
  "5555": "life",
  "5556": " concent",
  "5557": " Bob",
  "5558": " appreci",
  "5559": " Island",
  "5560": " surprising",
  "5561": " affected",
  "5562": " advance",
  "5563": " combat",
  "5564": " cas",
  "5565": "ocking",
  "5566": "obe",
  "5567": "First",
  "5568": "65",
  "5569": " turning",
  "5570": " Please",
  "5571": " Chief",
  "5572": " quant",
  "5573": " Social",
  "5574": "free",
  "5575": " involve",
  "5576": "inating",
  "5577": " symb",
  "5578": " caption",
  "5579": " Ohio",
  "5580": " Any",
  "5581": " differences",
  "5582": " During",
  "5583": "ulations",
  "5584": " tele",
  "5585": " tact",
  "5586": " basically",
  "5587": "mm",
  "5588": " Wood",
  "5589": "class",
  "5590": " privacy",
  "5591": " switch",
  "5592": " prime",
  "5593": " Ron",
  "5594": "ellow",
  "5595": " pulled",
  "5596": " recorded",
  "5597": " Space",
  "5598": "ita",
  "5599": "lyn",
  "5600": " seriously",
  "5601": " passing",
  "5602": " glass",
  "5603": " Paris",
  "5604": "reens",
  "5605": " shape",
  "5606": " fly",
  "5607": " advert",
  "5608": " cann",
  "5609": "Ð½",
  "5610": " Sing",
  "5611": " accident",
  "5612": " Free",
  "5613": " treated",
  "5614": "onom",
  "5615": "DP",
  "5616": " Gal",
  "5617": "Do",
  "5618": " remaining",
  "5619": " belong",
  "5620": " rain",
  "5621": " facing",
  "5622": " ends",
  "5623": " reduced",
  "5624": " aircraft",
  "5625": " excited",
  "5626": "05",
  "5627": " spring",
  "5628": " married",
  "5629": " explo",
  "5630": " attempts",
  "5631": " Both",
  "5632": "employ",
  "5633": "olved",
  "5634": " thank",
  "5635": " widely",
  "5636": " prepared",
  "5637": " Media",
  "5638": "ENT",
  "5639": " plus",
  "5640": " originally",
  "5641": " Lat",
  "5642": " Haw",
  "5643": " surve",
  "5644": " AN",
  "5645": " afternoon",
  "5646": "gment",
  "5647": " talked",
  "5648": " opportunities",
  "5649": " bodies",
  "5650": " vir",
  "5651": " collabor",
  "5652": " cloud",
  "5653": "ivered",
  "5654": "hy",
  "5655": " suppl",
  "5656": "useum",
  "5657": "Pe",
  "5658": " opposed",
  "5659": " dismiss",
  "5660": "rawn",
  "5661": "aped",
  "5662": " storm",
  "5663": " hopes",
  "5664": " zone",
  "5665": " element",
  "5666": " Color",
  "5667": "ensions",
  "5668": " pages",
  "5669": " considering",
  "5670": "oking",
  "5671": "avor",
  "5672": " supporting",
  "5673": "Ind",
  "5674": "aine",
  "5675": " reference",
  "5676": " minute",
  "5677": " identify",
  "5678": " Rem",
  "5679": " Fer",
  "5680": " master",
  "5681": " batt",
  "5682": "yr",
  "5683": "porary",
  "5684": "His",
  "5685": " Rod",
  "5686": "Well",
  "5687": "ã",
  "5688": "Another",
  "5689": " contrast",
  "5690": " diss",
  "5691": " Rel",
  "5692": " proceed",
  "5693": " Who",
  "5694": "ternal",
  "5695": "42",
  "5696": "that",
  "5697": " broadcast",
  "5698": "aniel",
  "5699": " frust",
  "5700": " purchase",
  "5701": " evening",
  "5702": " liberal",
  "5703": " giant",
  "5704": "nam",
  "5705": " Phot",
  "5706": " Blue",
  "5707": " Labour",
  "5708": " Human",
  "5709": "arts",
  "5710": " ske",
  "5711": " optim",
  "5712": " explos",
  "5713": " Matt",
  "5714": "osite",
  "5715": "erved",
  "5716": "ourney",
  "5717": "anged",
  "5718": " consumers",
  "5719": " lots",
  "5720": " Stan",
  "5721": " 1990",
  "5722": " transition",
  "5723": " leads",
  "5724": " politicians",
  "5725": " listen",
  "5726": " reporters",
  "5727": "war",
  "5728": " shift",
  "5729": " emp",
  "5730": " challenges",
  "5731": "ortion",
  "5732": " denied",
  "5733": " Show",
  "5734": " Science",
  "5735": " Project",
  "5736": " Force",
  "5737": " Peter",
  "5738": "abilities",
  "5739": "Tube",
  "5740": " ment",
  "5741": "rog",
  "5742": " voting",
  "5743": "ompl",
  "5744": " lit",
  "5745": " crimes",
  "5746": " picked",
  "5747": "usiness",
  "5748": "host",
  "5749": "ampion",
  "5750": " craft",
  "5751": " Capt",
  "5752": " struggle",
  "5753": " sem",
  "5754": " See",
  "5755": "rie",
  "5756": "oral",
  "5757": " severe",
  "5758": "aled",
  "5759": " Muslims",
  "5760": "ras",
  "5761": " combined",
  "5762": "lo",
  "5763": "LS",
  "5764": "pass",
  "5765": " creation",
  "5766": " unable",
  "5767": " faces",
  "5768": " agents",
  "5769": " PM",
  "5770": " Sher",
  "5771": "urrent",
  "5772": "reland",
  "5773": " writes",
  "5774": " proud",
  "5775": "vin",
  "5776": "ml",
  "5777": "mates",
  "5778": " playoff",
  "5779": " guns",
  "5780": " declared",
  "5781": " Jesus",
  "5782": " declined",
  "5783": "ruption",
  "5784": "ownt",
  "5785": " package",
  "5786": " minimum",
  "5787": " Dou",
  "5788": "mond",
  "5789": " NAS",
  "5790": " moral",
  "5791": " factor",
  "5792": " fra",
  "5793": " Cru",
  "5794": "razy",
  "5795": "hered",
  "5796": "],",
  "5797": "Oh",
  "5798": " shouldn",
  "5799": " panel",
  "5800": "respond",
  "5801": "aling",
  "5802": " mode",
  "5803": " Prot",
  "5804": " Michigan",
  "5805": " emergency",
  "5806": " doctor",
  "5807": "64",
  "5808": " id",
  "5809": "nergy",
  "5810": " violent",
  "5811": " thr",
  "5812": "ounded",
  "5813": " matters",
  "5814": " fish",
  "5815": " Ok",
  "5816": " suffered",
  "5817": " SC",
  "5818": "ucks",
  "5819": "olt",
  "5820": " quiet",
  "5821": " client",
  "5822": " admitted",
  "5823": "plom",
  "5824": " approved",
  "5825": " 48",
  "5826": " Spr",
  "5827": " Andrew",
  "5828": " perspective",
  "5829": " loved",
  "5830": " disappoint",
  "5831": "asure",
  "5832": " proced",
  "5833": " injured",
  "5834": " crack",
  "5835": "zer",
  "5836": " hol",
  "5837": " construct",
  "5838": " coff",
  "5839": " Mem",
  "5840": "ributed",
  "5841": "amin",
  "5842": "PD",
  "5843": " ordered",
  "5844": " injuries",
  "5845": " circumst",
  "5846": " argue",
  "5847": " Turkey",
  "5848": " Rad",
  "5849": " ongoing",
  "5850": " plants",
  "5851": " Today",
  "5852": " 37",
  "5853": "odd",
  "5854": "cons",
  "5855": " delivered",
  "5856": " 38",
  "5857": " quarterback",
  "5858": " CNN",
  "5859": "nell",
  "5860": "care",
  "5861": " Squ",
  "5862": " substant",
  "5863": " franch",
  "5864": " aid",
  "5865": " technical",
  "5866": " Lake",
  "5867": " trouble",
  "5868": " Open",
  "5869": "isters",
  "5870": "aints",
  "5871": " responded",
  "5872": "pet",
  "5873": "Rep",
  "5874": " mort",
  "5875": " apps",
  "5876": " Tal",
  "5877": " walking",
  "5878": " missed",
  "5879": " Scot",
  "5880": " Jul",
  "5881": "evin",
  "5882": "can",
  "5883": "De",
  "5884": " numerous",
  "5885": " appropriate",
  "5886": " typically",
  "5887": " mir",
  "5888": " lob",
  "5889": " burn",
  "5890": " activists",
  "5891": "Am",
  "5892": " calcul",
  "5893": " readers",
  "5894": " stands",
  "5895": " renew",
  "5896": "acr",
  "5897": " tourn",
  "5898": " emphas",
  "5899": " delay",
  "5900": " suit",
  "5901": "enture",
  "5902": "ban",
  "5903": " discrim",
  "5904": " Yet",
  "5905": " updates",
  "5906": " capable",
  "5907": " talent",
  "5908": " thoughts",
  "5909": " Saud",
  "5910": "Over",
  "5911": " confidence",
  "5912": " RE",
  "5913": " offense",
  "5914": " architect",
  "5915": "02",
  "5916": "ogue",
  "5917": " forg",
  "5918": "idel",
  "5919": "elly",
  "5920": " newspaper",
  "5921": "allas",
  "5922": " tradition",
  "5923": " enemy",
  "5924": "col",
  "5925": "oty",
  "5926": "amm",
  "5927": " institutions",
  "5928": ",â",
  "5929": " subsequ",
  "5930": " materials",
  "5931": " Charl",
  "5932": " findings",
  "5933": " depart",
  "5934": " AT",
  "5935": "Ã³",
  "5936": " gra",
  "5937": " excell",
  "5938": " sets",
  "5939": " confident",
  "5940": "iger",
  "5941": " reportedly",
  "5942": " listed",
  "5943": "hab",
  "5944": " secretary",
  "5945": "inet",
  "5946": "oves",
  "5947": " connected",
  "5948": " advice",
  "5949": "LE",
  "5950": "dule",
  "5951": " increases",
  "5952": " bull",
  "5953": " BBC",
  "5954": "%)",
  "5955": " weather",
  "5956": " Harry",
  "5957": "ilty",
  "5958": " session",
  "5959": " default",
  "5960": " editor",
  "5961": " accompl",
  "5962": "edd",
  "5963": " everybody",
  "5964": " Rev",
  "5965": " Seattle",
  "5966": " Grand",
  "5967": "ishes",
  "5968": "ilit",
  "5969": " prompt",
  "5970": " Christmas",
  "5971": "rid",
  "5972": " pitch",
  "5973": " explains",
  "5974": " Ma",
  "5975": "asp",
  "5976": " rot",
  "5977": " filled",
  "5978": " alcohol",
  "5979": " forget",
  "5980": "li",
  "5981": "During",
  "5982": " expansion",
  "5983": " Week",
  "5984": " tun",
  "5985": " protests",
  "5986": " centre",
  "5987": " atmosp",
  "5988": "athan",
  "5989": " rail",
  "5990": " entertain",
  "5991": "unte",
  "5992": " transform",
  "5993": " Georg",
  "5994": " Follow",
  "5995": "oken",
  "5996": " tech",
  "5997": "43",
  "5998": " Techn",
  "5999": "called",
  "6000": " threats",
  "6001": " practices",
  "6002": "Ã­",
  "6003": "abled",
  "6004": " hell",
  "6005": "ache",
  "6006": " messages",
  "6007": " route",
  "6008": " iPh",
  "6009": " eval",
  "6010": " Sum",
  "6011": " Av",
  "6012": " flood",
  "6013": " Ireland",
  "6014": "41",
  "6015": " prin",
  "6016": " mand",
  "6017": "illy",
  "6018": "arden",
  "6019": "apter",
  "6020": " statements",
  "6021": "razil",
  "6022": " Read",
  "6023": " Sign",
  "6024": "adow",
  "6025": "PR",
  "6026": " wear",
  "6027": " Penn",
  "6028": " Director",
  "6029": "uls",
  "6030": "American",
  "6031": " Roman",
  "6032": "uations",
  "6033": "inals",
  "6034": " 2001",
  "6035": "95",
  "6036": " Columb",
  "6037": " buildings",
  "6038": " behavi",
  "6039": "sex",
  "6040": "enda",
  "6041": " patient",
  "6042": " effectively",
  "6043": " publicly",
  "6044": " household",
  "6045": "apping",
  "6046": " virtual",
  "6047": " reporting",
  "6048": " Gen",
  "6049": " basket",
  "6050": "unction",
  "6051": " Jews",
  "6052": " advanced",
  "6053": " sam",
  "6054": "rant",
  "6055": "eds",
  "6056": " coord",
  "6057": " discl",
  "6058": " valid",
  "6059": " sad",
  "6060": " powers",
  "6061": "sts",
  "6062": "resents",
  "6063": " bond",
  "6064": "=\"",
  "6065": " cooper",
  "6066": "ooth",
  "6067": "OD",
  "6068": " sym",
  "6069": " confirm",
  "6070": " label",
  "6071": " Fe",
  "6072": "inent",
  "6073": " facts",
  "6074": " Prem",
  "6075": "Other",
  "6076": " announcement",
  "6077": " af",
  "6078": " rein",
  "6079": " lawsuit",
  "6080": " Lib",
  "6081": " incor",
  "6082": " examples",
  "6083": "estival",
  "6084": " 2003",
  "6085": "uous",
  "6086": " scheduled",
  "6087": " nations",
  "6088": "Follow",
  "6089": "App",
  "6090": " emails",
  "6091": " spons",
  "6092": " legit",
  "6093": "oen",
  "6094": "ionally",
  "6095": " realize",
  "6096": " auth",
  "6097": " Ukraine",
  "6098": "ala",
  "6099": " edge",
  "6100": " Lin",
  "6101": " initially",
  "6102": " Rights",
  "6103": "amental",
  "6104": " causes",
  "6105": "aza",
  "6106": "arry",
  "6107": "rum",
  "6108": " rising",
  "6109": "enger",
  "6110": " objects",
  "6111": " networks",
  "6112": " pictures",
  "6113": " Sports",
  "6114": " Year",
  "6115": " stores",
  "6116": " instruct",
  "6117": "ERS",
  "6118": " neither",
  "6119": "iot",
  "6120": "cos",
  "6121": "MA",
  "6122": " athlet",
  "6123": "anes",
  "6124": "Many",
  "6125": " allegations",
  "6126": "agers",
  "6127": "TC",
  "6128": " governor",
  "6129": " classes",
  "6130": " manufacture",
  "6131": " sought",
  "6132": " follows",
  "6133": " perman",
  "6134": " IP",
  "6135": " trib",
  "6136": " Hen",
  "6137": "water",
  "6138": " restaurant",
  "6139": " ourselves",
  "6140": " deaths",
  "6141": " exercise",
  "6142": " van",
  "6143": " magazine",
  "6144": "bur",
  "6145": " suc",
  "6146": " highlight",
  "6147": " ISIS",
  "6148": "tion",
  "6149": "oma",
  "6150": " surprised",
  "6151": " boys",
  "6152": " applied",
  "6153": " remark",
  "6154": " entry",
  "6155": " accepted",
  "6156": "essor",
  "6157": "esome",
  "6158": "ansas",
  "6159": " 49",
  "6160": " cart",
  "6161": " terrorist",
  "6162": " bright",
  "6163": "zona",
  "6164": "uy",
  "6165": "alty",
  "6166": " Watch",
  "6167": " younger",
  "6168": " combination",
  "6169": " armed",
  "6170": " movies",
  "6171": " approx",
  "6172": "ocratic",
  "6173": "ador",
  "6174": " dynam",
  "6175": " bike",
  "6176": " philosoph",
  "6177": " Ill",
  "6178": " shots",
  "6179": "orders",
  "6180": "Res",
  "6181": " lawyer",
  "6182": " native",
  "6183": " Wal",
  "6184": " fort",
  "6185": " YouTube",
  "6186": " Barack",
  "6187": "game",
  "6188": " pool",
  "6189": " myster",
  "6190": " explan",
  "6191": " Second",
  "6192": "scribe",
  "6193": "long",
  "6194": " enh",
  "6195": " radical",
  "6196": " begins",
  "6197": "arters",
  "6198": "aylor",
  "6199": " nearby",
  "6200": " discussed",
  "6201": " 33",
  "6202": " decre",
  "6203": " vari",
  "6204": " debut",
  "6205": " OF",
  "6206": " gather",
  "6207": " breaking",
  "6208": "hetic",
  "6209": " contains",
  "6210": " Image",
  "6211": "Most",
  "6212": " grab",
  "6213": " Work",
  "6214": " Back",
  "6215": "top",
  "6216": " yesterday",
  "6217": " 300",
  "6218": "icing",
  "6219": "Although",
  "6220": " prohib",
  "6221": " Club",
  "6222": "57",
  "6223": " pure",
  "6224": " bag",
  "6225": " articles",
  "6226": " Only",
  "6227": " alt",
  "6228": "usal",
  "6229": "ulture",
  "6230": " subm",
  "6231": " heads",
  "6232": " diagn",
  "6233": " button",
  "6234": " withd",
  "6235": " totally",
  "6236": " flo",
  "6237": " fashion",
  "6238": " ing",
  "6239": "Spe",
  "6240": ",[",
  "6241": " colleagues",
  "6242": " Another",
  "6243": "west",
  "6244": " performed",
  "6245": "orry",
  "6246": "law",
  "6247": "irty",
  "6248": " linked",
  "6249": " desire",
  "6250": " bare",
  "6251": "====",
  "6252": " artist",
  "6253": " Catholic",
  "6254": "stood",
  "6255": " democracy",
  "6256": "ali",
  "6257": "Cont",
  "6258": " thinks",
  "6259": " TO",
  "6260": " pra",
  "6261": " motor",
  "6262": " essentially",
  "6263": " moves",
  "6264": "66",
  "6265": " receiving",
  "6266": " anywhere",
  "6267": " diplom",
  "6268": " schol",
  "6269": " Aff",
  "6270": " warned",
  "6271": " System",
  "6272": " tow",
  "6273": " Vict",
  "6274": "UR",
  "6275": " temperature",
  "6276": " necessarily",
  "6277": " metal",
  "6278": " leaves",
  "6279": " adds",
  "6280": "iami",
  "6281": "erry",
  "6282": " vacc",
  "6283": " succeed",
  "6284": " experiences",
  "6285": " consistent",
  "6286": " Old",
  "6287": "phy",
  "6288": "ideo",
  "6289": " roughly",
  "6290": " entered",
  "6291": " warning",
  "6292": " abandon",
  "6293": "onna",
  "6294": " faced",
  "6295": " Walk",
  "6296": "ollywood",
  "6297": "ician",
  "6298": "acle",
  "6299": " improved",
  "6300": " historical",
  "6301": " existence",
  "6302": " cert",
  "6303": " Cle",
  "6304": "whel",
  "6305": "See",
  "6306": " parliament",
  "6307": " blow",
  "6308": " interpret",
  "6309": " Men",
  "6310": "FP",
  "6311": " resolution",
  "6312": " journey",
  "6313": " dial",
  "6314": " immigrants",
  "6315": "greg",
  "6316": " 34",
  "6317": " links",
  "6318": " holds",
  "6319": " sav",
  "6320": " represents",
  "6321": " ride",
  "6322": " guilty",
  "6323": " Brazil",
  "6324": "twitter",
  "6325": "May",
  "6326": "Qu",
  "6327": " stream",
  "6328": " input",
  "6329": " warm",
  "6330": " Valley",
  "6331": " Develop",
  "6332": " 1980",
  "6333": " hat",
  "6334": "ship",
  "6335": "awa",
  "6336": " phen",
  "6337": " Kenn",
  "6338": " pushed",
  "6339": " harder",
  "6340": " fewer",
  "6341": " Cast",
  "6342": "icious",
  "6343": "fortunately",
  "6344": " Life",
  "6345": " Board",
  "6346": " targets",
  "6347": " Ken",
  "6348": " consequences",
  "6349": " Whe",
  "6350": " fairly",
  "6351": " creative",
  "6352": " targeted",
  "6353": " returns",
  "6354": " Ms",
  "6355": "rich",
  "6356": " island",
  "6357": " correspond",
  "6358": " classic",
  "6359": "oked",
  "6360": "Then",
  "6361": "08",
  "6362": " rally",
  "6363": " doctors",
  "6364": " Cub",
  "6365": " stood",
  "6366": " joint",
  "6367": " brings",
  "6368": " currency",
  "6369": " Hist",
  "6370": "Yes",
  "6371": "68",
  "6372": " Die",
  "6373": " bon",
  "6374": "ua",
  "6375": " row",
  "6376": " lie",
  "6377": "rip",
  "6378": "En",
  "6379": " Plan",
  "6380": " Exp",
  "6381": "iques",
  "6382": " investors",
  "6383": " Romney",
  "6384": "xy",
  "6385": " knowing",
  "6386": " Miller",
  "6387": "',",
  "6388": " manner",
  "6389": " intention",
  "6390": "word",
  "6391": " Asia",
  "6392": "Can",
  "6393": " wins",
  "6394": " vice",
  "6395": " heavily",
  "6396": " fill",
  "6397": "TS",
  "6398": " strange",
  "6399": " scored",
  "6400": "ocation",
  "6401": " Games",
  "6402": " shop",
  "6403": " facility",
  "6404": " datab",
  "6405": " storage",
  "6406": " relationships",
  "6407": " west",
  "6408": " hoping",
  "6409": "cho",
  "6410": "ulous",
  "6411": "born",
  "6412": " earned",
  "6413": " subsid",
  "6414": " formed",
  "6415": " hardware",
  "6416": " squad",
  "6417": " replaced",
  "6418": " customer",
  "6419": "orse",
  "6420": "ami",
  "6421": "Se",
  "6422": "ORE",
  "6423": " nav",
  "6424": " hotel",
  "6425": " Each",
  "6426": "comm",
  "6427": " drivers",
  "6428": " depth",
  "6429": " allegedly",
  "6430": " Arizona",
  "6431": "oster",
  "6432": " egg",
  "6433": " reput",
  "6434": " Carl",
  "6435": "andal",
  "6436": "Pol",
  "6437": " tree",
  "6438": " favour",
  "6439": " confront",
  "6440": " Swed",
  "6441": " consumer",
  "6442": " circumstances",
  "6443": " Saudi",
  "6444": "igure",
  "6445": " moments",
  "6446": " mouth",
  "6447": " Its",
  "6448": "sembly",
  "6449": "oming",
  "6450": " experim",
  "6451": "ensus",
  "6452": " sister",
  "6453": " rum",
  "6454": " closely",
  "6455": " Vol",
  "6456": "LA",
  "6457": "78",
  "6458": " shif",
  "6459": " infl",
  "6460": " importance",
  "6461": " ancient",
  "6462": " Sar",
  "6463": "ologist",
  "6464": "foot",
  "6465": "illance",
  "6466": " protesters",
  "6467": " frequently",
  "6468": " Van",
  "6469": " Sky",
  "6470": " Maybe",
  "6471": " opposite",
  "6472": " Fil",
  "6473": " unlikely",
  "6474": " functions",
  "6475": " cab",
  "6476": " Gar",
  "6477": " excellent",
  "6478": " defined",
  "6479": " attacked",
  "6480": " Colorado",
  "6481": " unus",
  "6482": "Donald",
  "6483": " lock",
  "6484": " https",
  "6485": " hur",
  "6486": " dedicated",
  "6487": " Eric",
  "6488": "mes",
  "6489": "acc",
  "6490": " library",
  "6491": " emotional",
  "6492": " Pacific",
  "6493": " somewhat",
  "6494": " matches",
  "6495": " Irish",
  "6496": " mainstream",
  "6497": "def",
  "6498": " Jr",
  "6499": "erences",
  "6500": " fraud",
  "6501": " regulations",
  "6502": " crazy",
  "6503": " songs",
  "6504": " sharing",
  "6505": " chain",
  "6506": "ette",
  "6507": " monit",
  "6508": " Top",
  "6509": "Add",
  "6510": "ellect",
  "6511": " neut",
  "6512": " flag",
  "6513": "duc",
  "6514": " watched",
  "6515": " cheap",
  "6516": " waste",
  "6517": " Elect",
  "6518": "you",
  "6519": " extent",
  "6520": " marketing",
  "6521": " eating",
  "6522": " Wild",
  "6523": " Energy",
  "6524": " pushing",
  "6525": " universe",
  "6526": " essential",
  "6527": " 75",
  "6528": " wal",
  "6529": " observ",
  "6530": "rence",
  "6531": " versions",
  "6532": " pled",
  "6533": " fundamental",
  "6534": " Ol",
  "6535": "chen",
  "6536": " split",
  "6537": " carrying",
  "6538": " Polit",
  "6539": " decline",
  "6540": " alongside",
  "6541": " acknowled",
  "6542": " Putin",
  "6543": " intent",
  "6544": " diet",
  "6545": " congress",
  "6546": " plane",
  "6547": "ockey",
  "6548": "ii",
  "6549": " wave",
  "6550": "iana",
  "6551": "People",
  "6552": "str",
  "6553": "apse",
  "6554": " signing",
  "6555": " grown",
  "6556": " walked",
  "6557": " err",
  "6558": " contest",
  "6559": " iPhone",
  "6560": " Ell",
  "6561": "hus",
  "6562": " Davis",
  "6563": " unknown",
  "6564": " resident",
  "6565": "ati",
  "6566": " sees",
  "6567": " lies",
  "6568": " detailed",
  "6569": " square",
  "6570": " discover",
  "6571": "esc",
  "6572": " Mount",
  "6573": "erves",
  "6574": " newslet",
  "6575": "roit",
  "6576": " bat",
  "6577": " Class",
  "6578": " kit",
  "6579": " cycle",
  "6580": " causing",
  "6581": "uated",
  "6582": "ometimes",
  "6583": "iveness",
  "6584": "irds",
  "6585": " embr",
  "6586": " describe",
  "6587": " buying",
  "6588": " Ital",
  "6589": " Dallas",
  "6590": "ns",
  "6591": "kel",
  "6592": " GM",
  "6593": " zero",
  "6594": " east",
  "6595": " schedule",
  "6596": " empt",
  "6597": " Sov",
  "6598": "opy",
  "6599": "ographic",
  "6600": " medic",
  "6601": " distribution",
  "6602": " Brook",
  "6603": "efully",
  "6604": " 65",
  "6605": "ican",
  "6606": "Two",
  "6607": " trick",
  "6608": " evolution",
  "6609": " NY",
  "6610": " owned",
  "6611": "raham",
  "6612": " downt",
  "6613": " commitment",
  "6614": "woman",
  "6615": "iciency",
  "6616": " suicide",
  "6617": " laugh",
  "6618": " resc",
  "6619": " motion",
  "6620": " isol",
  "6621": " flat",
  "6622": " channel",
  "6623": "ensity",
  "6624": " realized",
  "6625": " industrial",
  "6626": " adults",
  "6627": " acts",
  "6628": "aze",
  "6629": " franchise",
  "6630": "IR",
  "6631": " deals",
  "6632": " Miami",
  "6633": "IF",
  "6634": " promise",
  "6635": " Card",
  "6636": "alo",
  "6637": " Young",
  "6638": "va",
  "6639": " hall",
  "6640": "CE",
  "6641": " simpl",
  "6642": " reward",
  "6643": " opponent",
  "6644": " featured",
  "6645": " volunte",
  "6646": " sending",
  "6647": " Charles",
  "6648": "Ð»",
  "6649": "ugh",
  "6650": "ora",
  "6651": "acking",
  "6652": " Hol",
  "6653": " Right",
  "6654": "chers",
  "6655": "amily",
  "6656": " struck",
  "6657": " liqu",
  "6658": " chairman",
  "6659": "asts",
  "6660": " posts",
  "6661": " meat",
  "6662": "GG",
  "6663": " sky",
  "6664": " relevant",
  "6665": " Brad",
  "6666": " defeat",
  "6667": " Korean",
  "6668": "77",
  "6669": "utch",
  "6670": "ayers",
  "6671": " teachers",
  "6672": " Wat",
  "6673": " inspired",
  "6674": " conver",
  "6675": " tiny",
  "6676": " manage",
  "6677": " dealing",
  "6678": "acter",
  "6679": " observed",
  "6680": " controls",
  "6681": "sole",
  "6682": " snow",
  "6683": " controversial",
  "6684": " comfortable",
  "6685": " Wilson",
  "6686": " Ram",
  "6687": " upcoming",
  "6688": " illust",
  "6689": " battery",
  "6690": " Mot",
  "6691": " Far",
  "6692": "nic",
  "6693": " immediate",
  "6694": " narrow",
  "6695": " Str",
  "6696": " Again",
  "6697": " exciting",
  "6698": " urg",
  "6699": "bel",
  "6700": "BO",
  "6701": " tested",
  "6702": " competitive",
  "6703": "uable",
  "6704": "omin",
  "6705": "boy",
  "6706": " wake",
  "6707": " kinds",
  "6708": " properties",
  "6709": "Or",
  "6710": "****",
  "6711": " Kim",
  "6712": " Aut",
  "6713": " passion",
  "6714": " suffering",
  "6715": " Lord",
  "6716": " sick",
  "6717": " expression",
  "6718": " efficient",
  "6719": " attempted",
  "6720": " flu",
  "6721": " Hel",
  "6722": " Dev",
  "6723": " Cy",
  "6724": "â.",
  "6725": " termin",
  "6726": " authors",
  "6727": "ocket",
  "6728": "inson",
  "6729": " tom",
  "6730": " bug",
  "6731": " Fre",
  "6732": " symbol",
  "6733": " anyway",
  "6734": "rome",
  "6735": "obile",
  "6736": "ppo",
  "6737": "ether",
  "6738": " northern",
  "6739": " explore",
  "6740": " View",
  "6741": " Ann",
  "6742": "ko",
  "6743": "Despite",
  "6744": " repeatedly",
  "6745": " Kevin",
  "6746": "oration",
  "6747": "DS",
  "6748": " selected",
  "6749": " deeply",
  "6750": "kay",
  "6751": "........",
  "6752": " usual",
  "6753": " emissions",
  "6754": " Long",
  "6755": "Rel",
  "6756": " sentence",
  "6757": " crash",
  "6758": " aside",
  "6759": " Services",
  "6760": " sho",
  "6761": " agenda",
  "6762": " NHL",
  "6763": " domin",
  "6764": " acting",
  "6765": " Defense",
  "6766": " literally",
  "6767": " guide",
  "6768": " Enter",
  "6769": "olve",
  "6770": " unemploy",
  "6771": " referred",
  "6772": " output",
  "6773": " opponents",
  "6774": " sustain",
  "6775": " studio",
  "6776": " regional",
  "6777": "sters",
  "6778": " fixed",
  "6779": " cere",
  "6780": "ceived",
  "6781": " volume",
  "6782": " boss",
  "6783": "iki",
  "6784": "Ob",
  "6785": " string",
  "6786": " dry",
  "6787": " mechanism",
  "6788": " involving",
  "6789": "Ã¤",
  "6790": " fighters",
  "6791": " fifth",
  "6792": "gery",
  "6793": " overwhel",
  "6794": " surrounding",
  "6795": " rape",
  "6796": "04",
  "6797": " sample",
  "6798": " cutting",
  "6799": " Women",
  "6800": " disag",
  "6801": " assert",
  "6802": "rations",
  "6803": " destroyed",
  "6804": " actor",
  "6805": "ipl",
  "6806": "burg",
  "6807": "John",
  "6808": " impressive",
  "6809": "verty",
  "6810": "amber",
  "6811": " Jersey",
  "6812": "anges",
  "6813": "umber",
  "6814": " oblig",
  "6815": " noticed",
  "6816": " letters",
  "6817": " Inf",
  "6818": "Like",
  "6819": " updated",
  "6820": " champion",
  "6821": " Stephen",
  "6822": " transp",
  "6823": "88",
  "6824": " ring",
  "6825": " personally",
  "6826": " Econom",
  "6827": " sweet",
  "6828": " shel",
  "6829": " assume",
  "6830": " skill",
  "6831": " poverty",
  "6832": " Boy",
  "6833": "xual",
  "6834": "imp",
  "6835": " uncle",
  "6836": " remote",
  "6837": " mine",
  "6838": " assets",
  "6839": "redit",
  "6840": " worried",
  "6841": " plot",
  "6842": " latter",
  "6843": " Down",
  "6844": "dro",
  "6845": "CA",
  "6846": " gap",
  "6847": "endo",
  "6848": "azi",
  "6849": " puts",
  "6850": "otes",
  "6851": " southern",
  "6852": " folks",
  "6853": " technologies",
  "6854": " suddenly",
  "6855": " Society",
  "6856": "osis",
  "6857": "luding",
  "6858": "bar",
  "6859": " Georgia",
  "6860": " urban",
  "6861": "sea",
  "6862": " alive",
  "6863": "ordan",
  "6864": " rub",
  "6865": "rive",
  "6866": "GBT",
  "6867": " slowly",
  "6868": " Foot",
  "6869": " pip",
  "6870": " maximum",
  "6871": " god",
  "6872": " Contin",
  "6873": "ââ",
  "6874": "weight",
  "6875": " participants",
  "6876": " dress",
  "6877": " Light",
  "6878": " Cam",
  "6879": "agan",
  "6880": " instru",
  "6881": " constant",
  "6882": " Thanks",
  "6883": " pregn",
  "6884": "ivery",
  "6885": " alg",
  "6886": " promote",
  "6887": " 1970",
  "6888": "cow",
  "6889": " ped",
  "6890": " winter",
  "6891": " protected",
  "6892": "inem",
  "6893": "09",
  "6894": " fees",
  "6895": " 39",
  "6896": " recognize",
  "6897": " license",
  "6898": " baseball",
  "6899": "atell",
  "6900": " selection",
  "6901": " aspects",
  "6902": "rete",
  "6903": "gender",
  "6904": " profit",
  "6905": " moder",
  "6906": " division",
  "6907": " artists",
  "6908": " Di",
  "6909": " resistance",
  "6910": " blame",
  "6911": "PU",
  "6912": " height",
  "6913": " Way",
  "6914": " Dam",
  "6915": " therap",
  "6916": " scheme",
  "6917": " Anth",
  "6918": "otten",
  "6919": " TH",
  "6920": "asks",
  "6921": " wage",
  "6922": " drag",
  "6923": " condem",
  "6924": " Dan",
  "6925": " serving",
  "6926": " reporter",
  "6927": " neighb",
  "6928": "lls",
  "6929": " understood",
  "6930": " escape",
  "6931": " coffee",
  "6932": "ingu",
  "6933": "friend",
  "6934": " Labor",
  "6935": " requirements",
  "6936": " syn",
  "6937": "raid",
  "6938": "fire",
  "6939": " claiming",
  "6940": " Max",
  "6941": "Dr",
  "6942": " arguments",
  "6943": " narr",
  "6944": " forth",
  "6945": " Bat",
  "6946": " Bas",
  "6947": "zy",
  "6948": " Hollywood",
  "6949": "regon",
  "6950": " clients",
  "6951": "igg",
  "6952": "han",
  "6953": "alle",
  "6954": "zens",
  "6955": "onymous",
  "6956": " somehow",
  "6957": " Cruz",
  "6958": "uilding",
  "6959": "________________",
  "6960": " imper",
  "6961": " ideal",
  "6962": "onsin",
  "6963": " ID",
  "6964": " Er",
  "6965": " nomine",
  "6966": " goods",
  "6967": " Company",
  "6968": "67",
  "6969": " merely",
  "6970": "aug",
  "6971": "OC",
  "6972": "isconsin",
  "6973": " sympt",
  "6974": " phenomen",
  "6975": "ura",
  "6976": " Network",
  "6977": "adel",
  "6978": " Nic",
  "6979": "athy",
  "6980": " falling",
  "6981": " category",
  "6982": " ble",
  "6983": " allies",
  "6984": "eping",
  "6985": " properly",
  "6986": " obtained",
  "6987": " communication",
  "6988": " unp",
  "6989": " PR",
  "6990": " retire",
  "6991": " honor",
  "6992": " gaming",
  "6993": " basketball",
  "6994": " femin",
  "6995": "asters",
  "6996": " employee",
  "6997": " Kn",
  "6998": "post",
  "6999": "enders",
  "7000": " locations",
  "7001": " finds",
  "7002": " Î",
  "7003": "Per",
  "7004": " somebody",
  "7005": " mistake",
  "7006": " teacher",
  "7007": " evil",
  "7008": " gro",
  "7009": " electricity",
  "7010": " critics",
  "7011": "print",
  "7012": " worldwide",
  "7013": "ciples",
  "7014": " chose",
  "7015": " Bowl",
  "7016": "Sec",
  "7017": " www",
  "7018": " gang",
  "7019": " risks",
  "7020": " approval",
  "7021": " Spanish",
  "7022": "sl",
  "7023": " Southern",
  "7024": "lights",
  "7025": " somewhere",
  "7026": " promised",
  "7027": " phase",
  "7028": " format",
  "7029": "rison",
  "7030": " wid",
  "7031": " Taylor",
  "7032": "igation",
  "7033": " Supp",
  "7034": " Gall",
  "7035": " informed",
  "7036": " Py",
  "7037": "¬",
  "7038": " desper",
  "7039": " controlled",
  "7040": " campus",
  "7041": " newly",
  "7042": " choices",
  "7043": "iform",
  "7044": " Hot",
  "7045": " dollar",
  "7046": " \\",
  "7047": "onic",
  "7048": "isan",
  "7049": "Int",
  "7050": " Viet",
  "7051": " Daniel",
  "7052": "owa",
  "7053": "itarian",
  "7054": " welcome",
  "7055": " plastic",
  "7056": " payments",
  "7057": " chosen",
  "7058": " Despite",
  "7059": " 2002",
  "7060": " truck",
  "7061": " surveillance",
  "7062": " definition",
  "7063": " DC",
  "7064": "%,",
  "7065": " theme",
  "7066": " Moore",
  "7067": "cers",
  "7068": " Palestinian",
  "7069": " Joseph",
  "7070": "owed",
  "7071": " encourage",
  "7072": " stretch",
  "7073": " Scotland",
  "7074": "ixt",
  "7075": " Java",
  "7076": "dis",
  "7077": "Any",
  "7078": " tort",
  "7079": " seats",
  "7080": "VER",
  "7081": " Detroit",
  "7082": " Where",
  "7083": " Wars",
  "7084": " Land",
  "7085": "ja",
  "7086": " tournament",
  "7087": " territory",
  "7088": " perfectly",
  "7089": " directed",
  "7090": " payment",
  "7091": " Author",
  "7092": " developer",
  "7093": " Ruby",
  "7094": "oric",
  "7095": " sight",
  "7096": " exposed",
  "7097": "unning",
  "7098": "ta",
  "7099": " officially",
  "7100": " Soviet",
  "7101": " Home",
  "7102": "pool",
  "7103": "////",
  "7104": " equival",
  "7105": " clar",
  "7106": " captured",
  "7107": "sell",
  "7108": "Police",
  "7109": " precise",
  "7110": "acked",
  "7111": " supports",
  "7112": " gotten",
  "7113": "ums",
  "7114": " village",
  "7115": " terrorism",
  "7116": " mayor",
  "7117": " fuck",
  "7118": " Child",
  "7119": " orders",
  "7120": " incredible",
  "7121": " extended",
  "7122": " constit",
  "7123": "nesota",
  "7124": " amounts",
  "7125": " stim",
  "7126": " facilities",
  "7127": " config",
  "7128": "owered",
  "7129": " reasonable",
  "7130": " likes",
  "7131": " intellect",
  "7132": " aggressive",
  "7133": " adapt",
  "7134": " Tw",
  "7135": " stronger",
  "7136": " rejected",
  "7137": " Ford",
  "7138": "aire",
  "7139": "EW",
  "7140": " phr",
  "7141": " drawn",
  "7142": "earing",
  "7143": " returning",
  "7144": "Man",
  "7145": " fold",
  "7146": " Nations",
  "7147": "there",
  "7148": " trading",
  "7149": " threatened",
  "7150": " pilot",
  "7151": " dogs",
  "7152": "rage",
  "7153": "rypt",
  "7154": "orted",
  "7155": "inations",
  "7156": " typical",
  "7157": " routine",
  "7158": " incl",
  "7159": " Stand",
  "7160": "rary",
  "7161": " NASA",
  "7162": "Ã¶",
  "7163": " cyber",
  "7164": " bear",
  "7165": " anymore",
  "7166": " Tit",
  "7167": " Night",
  "7168": "star",
  "7169": "celer",
  "7170": " Best",
  "7171": " bunch",
  "7172": " Rog",
  "7173": " icon",
  "7174": " western",
  "7175": " Nation",
  "7176": " Ep",
  "7177": "lv",
  "7178": "300",
  "7179": " tied",
  "7180": " du",
  "7181": " primarily",
  "7182": " ruled",
  "7183": " bench",
  "7184": " wire",
  "7185": " apartment",
  "7186": " Jun",
  "7187": " Italy",
  "7188": " exhib",
  "7189": " comparison",
  "7190": "iler",
  "7191": " Camer",
  "7192": "EP",
  "7193": " journalists",
  "7194": " communications",
  "7195": " Agency",
  "7196": " resulting",
  "7197": " polls",
  "7198": " Four",
  "7199": " Academ",
  "7200": " regions",
  "7201": " purposes",
  "7202": " capture",
  "7203": " Premier",
  "7204": " Dun",
  "7205": " pic",
  "7206": " estimates",
  "7207": " topic",
  "7208": " titles",
  "7209": " strongly",
  "7210": " regularly",
  "7211": " conclusion",
  "7212": " approximately",
  "7213": " Thank",
  "7214": " pal",
  "7215": " Organ",
  "7216": "iner",
  "7217": "98",
  "7218": " flying",
  "7219": "cles",
  "7220": " sole",
  "7221": "ounter",
  "7222": "Also",
  "7223": " winner",
  "7224": " nobody",
  "7225": " Asian",
  "7226": " thread",
  "7227": " requests",
  "7228": " proof",
  "7229": " extensive",
  "7230": " concluded",
  "7231": " ads",
  "7232": " refugees",
  "7233": " pace",
  "7234": "style",
  "7235": " Special",
  "7236": " Test",
  "7237": "da",
  "7238": " fasc",
  "7239": " extract",
  "7240": " drinking",
  "7241": " Administ",
  "7242": "iro",
  "7243": " Love",
  "7244": " veteran",
  "7245": " bid",
  "7246": " anx",
  "7247": " Bull",
  "7248": "wan",
  "7249": "bell",
  "7250": " collected",
  "7251": "Ã¼",
  "7252": " weird",
  "7253": " punish",
  "7254": "raph",
  "7255": "igen",
  "7256": "active",
  "7257": " assistance",
  "7258": "hent",
  "7259": "ao",
  "7260": " enthus",
  "7261": " driven",
  "7262": " continuing",
  "7263": " atmosphere",
  "7264": "icket",
  "7265": "een",
  "7266": " founder",
  "7267": " fields",
  "7268": " crucial",
  "7269": " Foreign",
  "7270": " Fort",
  "7271": " meetings",
  "7272": " Attorney",
  "7273": "etary",
  "7274": " profile",
  "7275": " param",
  "7276": " Adam",
  "7277": "ilarly",
  "7278": "fall",
  "7279": " province",
  "7280": " inqu",
  "7281": "Because",
  "7282": "otal",
  "7283": "anchester",
  "7284": " Lu",
  "7285": " unw",
  "7286": " adopted",
  "7287": "pected",
  "7288": " houses",
  "7289": "tle",
  "7290": " exists",
  "7291": " comprom",
  "7292": " alert",
  "7293": "lder",
  "7294": " sanctions",
  "7295": " HT",
  "7296": " awesome",
  "7297": " Sk",
  "7298": "hips",
  "7299": " sand",
  "7300": " distinct",
  "7301": "ï¿",
  "7302": " academic",
  "7303": " plug",
  "7304": " estate",
  "7305": " ending",
  "7306": " defence",
  "7307": " programming",
  "7308": " habit",
  "7309": " granted",
  "7310": " Wisconsin",
  "7311": "PG",
  "7312": "\\\\",
  "7313": "58",
  "7314": " viewers",
  "7315": " explanation",
  "7316": " Ut",
  "7317": " Championship",
  "7318": " penalty",
  "7319": "uan",
  "7320": "aed",
  "7321": " reputation",
  "7322": " rival",
  "7323": " End",
  "7324": "icken",
  "7325": "axy",
  "7326": " limits",
  "7327": " decent",
  "7328": " deleg",
  "7329": " constantly",
  "7330": " spin",
  "7331": " bitcoin",
  "7332": "orne",
  "7333": "inding",
  "7334": " racial",
  "7335": " proved",
  "7336": " flex",
  "7337": "CS",
  "7338": " kil",
  "7339": " demands",
  "7340": " database",
  "7341": " writers",
  "7342": " ties",
  "7343": " abortion",
  "7344": " 42",
  "7345": " patterns",
  "7346": " empty",
  "7347": " signal",
  "7348": " brut",
  "7349": " advertising",
  "7350": " Tony",
  "7351": "vy",
  "7352": "essed",
  "7353": "cript",
  "7354": "abis",
  "7355": " duty",
  "7356": " Steven",
  "7357": " Kurd",
  "7358": " innoc",
  "7359": " Arch",
  "7360": " ($",
  "7361": " iron",
  "7362": " tall",
  "7363": " contributed",
  "7364": " Eastern",
  "7365": "olis",
  "7366": "ez",
  "7367": "actions",
  "7368": "Today",
  "7369": " loan",
  "7370": " answers",
  "7371": " Spain",
  "7372": "icer",
  "7373": " Tem",
  "7374": "esy",
  "7375": " feedback",
  "7376": "LL",
  "7377": "06",
  "7378": " warming",
  "7379": " taste",
  "7380": "ifications",
  "7381": " rig",
  "7382": " parking",
  "7383": " Mic",
  "7384": "anny",
  "7385": " entit",
  "7386": "lers",
  "7387": "ems",
  "7388": "\":\"",
  "7389": " hits",
  "7390": " Though",
  "7391": " Hun",
  "7392": " pod",
  "7393": " coalition",
  "7394": " Os",
  "7395": " Hit",
  "7396": " 47",
  "7397": "apes",
  "7398": "agram",
  "7399": " taught",
  "7400": "NC",
  "7401": " complicated",
  "7402": " component",
  "7403": "Rec",
  "7404": " cable",
  "7405": " upper",
  "7406": " solutions",
  "7407": " Moscow",
  "7408": "07",
  "7409": " techniques",
  "7410": " personnel",
  "7411": "rell",
  "7412": "SL",
  "7413": "54",
  "7414": " terrible",
  "7415": " passes",
  "7416": " degrees",
  "7417": " incredibly",
  "7418": " Oregon",
  "7419": " Minnesota",
  "7420": " 150",
  "7421": " brew",
  "7422": " Id",
  "7423": " AR",
  "7424": "HS",
  "7425": " mail",
  "7426": " contem",
  "7427": " Brian",
  "7428": " inspir",
  "7429": " define",
  "7430": " counsel",
  "7431": "ifer",
  "7432": " components",
  "7433": " NBC",
  "7434": "rett",
  "7435": "ogan",
  "7436": "aun",
  "7437": " survive",
  "7438": " stead",
  "7439": " fought",
  "7440": " Ont",
  "7441": " outcome",
  "7442": " stuck",
  "7443": " rating",
  "7444": " hadn",
  "7445": "stone",
  "7446": " roster",
  "7447": " excess",
  "7448": " Pen",
  "7449": "ibilities",
  "7450": "Getty",
  "7451": "Ah",
  "7452": " Josh",
  "7453": " Avenue",
  "7454": " paint",
  "7455": "Once",
  "7456": " surgery",
  "7457": " manip",
  "7458": " raising",
  "7459": " magic",
  "7460": " LGBT",
  "7461": " soul",
  "7462": " narrative",
  "7463": " marked",
  "7464": " Victor",
  "7465": " Turn",
  "7466": "mont",
  "7467": "mod",
  "7468": " worker",
  "7469": " championship",
  "7470": " Balt",
  "7471": " thin",
  "7472": " generate",
  "7473": "pes",
  "7474": "56",
  "7475": "rehens",
  "7476": " situations",
  "7477": " Sea",
  "7478": "log",
  "7479": " neuro",
  "7480": " CIA",
  "7481": " automatically",
  "7482": " Gi",
  "7483": "sm",
  "7484": "rating",
  "7485": " principles",
  "7486": " keeps",
  "7487": " engage",
  "7488": " colon",
  "7489": " bom",
  "7490": " Northern",
  "7491": " tracks",
  "7492": " dozen",
  "7493": "fast",
  "7494": " harass",
  "7495": " conven",
  "7496": " Italian",
  "7497": " Amendment",
  "7498": " scenes",
  "7499": " organized",
  "7500": " consumption",
  "7501": "gun",
  "7502": " vulnerable",
  "7503": " represented",
  "7504": " rus",
  "7505": " lawmakers",
  "7506": " bills",
  "7507": "â,",
  "7508": " Dark",
  "7509": "bec",
  "7510": " 64",
  "7511": "name",
  "7512": " complaint",
  "7513": " Coll",
  "7514": " Bell",
  "7515": " â",
  "7516": "scape",
  "7517": "inf",
  "7518": "ifies",
  "7519": " enable",
  "7520": " contracts",
  "7521": "ref",
  "7522": " registered",
  "7523": " apolog",
  "7524": " unusual",
  "7525": " elsewhere",
  "7526": " browser",
  "7527": " Jordan",
  "7528": " Jason",
  "7529": " Dar",
  "7530": " Constitution",
  "7531": " mixed",
  "7532": " Cross",
  "7533": " climb",
  "7534": " chart",
  "7535": " accurate",
  "7536": " hole",
  "7537": " desk",
  "7538": " angry",
  "7539": " Bru",
  "7540": " successfully",
  "7541": " Cat",
  "7542": " king",
  "7543": " Pay",
  "7544": "Off",
  "7545": "Fr",
  "7546": " trees",
  "7547": " Civil",
  "7548": "Mean",
  "7549": " Ray",
  "7550": " Iowa",
  "7551": " Care",
  "7552": "pan",
  "7553": "era",
  "7554": "aturally",
  "7555": " phones",
  "7556": " pin",
  "7557": " fake",
  "7558": " employment",
  "7559": "lock",
  "7560": " cameras",
  "7561": " Pan",
  "7562": "Mar",
  "7563": " lawyers",
  "7564": " Real",
  "7565": "itors",
  "7566": " feelings",
  "7567": " anticip",
  "7568": " aver",
  "7569": " 2019",
  "7570": "Ñ",
  "7571": " Nick",
  "7572": " FC",
  "7573": " Circ",
  "7574": " conspir",
  "7575": " assistant",
  "7576": "ima",
  "7577": "abama",
  "7578": " enjoyed",
  "7579": " Look",
  "7580": "ker",
  "7581": " murd",
  "7582": " grant",
  "7583": " depending",
  "7584": " Sn",
  "7585": " Oper",
  "7586": " generated",
  "7587": " bes",
  "7588": " 400",
  "7589": " 1999",
  "7590": "orith",
  "7591": " uncertain",
  "7592": " conscious",
  "7593": "phia",
  "7594": " regardless",
  "7595": " possession",
  "7596": "Inst",
  "7597": "EA",
  "7598": " clubs",
  "7599": " historic",
  "7600": " afraid",
  "7601": " extension",
  "7602": " array",
  "7603": " rarely",
  "7604": " Take",
  "7605": "tes",
  "7606": "aser",
  "7607": "96",
  "7608": " obst",
  "7609": " medium",
  "7610": " boot",
  "7611": " Business",
  "7612": " privile",
  "7613": " affili",
  "7614": "irk",
  "7615": "ilipp",
  "7616": " extrem",
  "7617": " dict",
  "7618": " aimed",
  "7619": "pat",
  "7620": " emerged",
  "7621": " Ah",
  "7622": " accomp",
  "7623": " Mu",
  "7624": "rates",
  "7625": "osa",
  "7626": "ena",
  "7627": "MP",
  "7628": " intense",
  "7629": " chances",
  "7630": " bath",
  "7631": " agric",
  "7632": " stations",
  "7633": " installed",
  "7634": " Kelly",
  "7635": " Zeal",
  "7636": " Henry",
  "7637": " Bry",
  "7638": "rep",
  "7639": " ru",
  "7640": " Global",
  "7641": "irms",
  "7642": "cling",
  "7643": "Com",
  "7644": "adelphia",
  "7645": " negotiations",
  "7646": " compens",
  "7647": "orough",
  "7648": "ogether",
  "7649": " subjects",
  "7650": " finance",
  "7651": " recovery",
  "7652": " grass",
  "7653": "mo",
  "7654": "everal",
  "7655": "abil",
  "7656": " sufficient",
  "7657": " profession",
  "7658": " Still",
  "7659": " Reuters",
  "7660": " MS",
  "7661": " Linux",
  "7662": " Before",
  "7663": "itar",
  "7664": " hidden",
  "7665": " CO",
  "7666": " valuable",
  "7667": " troub",
  "7668": " resulted",
  "7669": "52",
  "7670": " cup",
  "7671": " Sir",
  "7672": "car",
  "7673": "Mc",
  "7674": " spark",
  "7675": " infect",
  "7676": " dozens",
  "7677": " Educ",
  "7678": "prise",
  "7679": " tank",
  "7680": " river",
  "7681": " Ash",
  "7682": " â¢",
  "7683": " crypt",
  "7684": " je",
  "7685": " index",
  "7686": " equivalent",
  "7687": " Field",
  "7688": "taining",
  "7689": " visited",
  "7690": " ven",
  "7691": " prote",
  "7692": " pounds",
  "7693": " Conf",
  "7694": "mal",
  "7695": " solve",
  "7696": " downtown",
  "7697": "enth",
  "7698": " manufacturing",
  "7699": " expectations",
  "7700": "iscal",
  "7701": " engaged",
  "7702": " DNA",
  "7703": "izz",
  "7704": "ikes",
  "7705": " liked",
  "7706": " funny",
  "7707": " enemies",
  "7708": " describes",
  "7709": " Turk",
  "7710": " permission",
  "7711": " processes",
  "7712": " cited",
  "7713": "ls",
  "7714": "istent",
  "7715": "inity",
  "7716": " courts",
  "7717": " principle",
  "7718": " loud",
  "7719": " Lo",
  "7720": " Live",
  "7721": " yield",
  "7722": " gall",
  "7723": "59",
  "7724": " enorm",
  "7725": "MS",
  "7726": " satell",
  "7727": " permanent",
  "7728": " elite",
  "7729": " Beach",
  "7730": " relief",
  "7731": " fee",
  "7732": " Christians",
  "7733": "idency",
  "7734": " gonna",
  "7735": " busy",
  "7736": " myth",
  "7737": " attended",
  "7738": "list",
  "7739": "idelines",
  "7740": " roles",
  "7741": "upid",
  "7742": " wing",
  "7743": " mel",
  "7744": " gained",
  "7745": " fault",
  "7746": " explicit",
  "7747": "Meanwhile",
  "7748": " thousand",
  "7749": " blocks",
  "7750": " Vis",
  "7751": " Policy",
  "7752": " audio",
  "7753": " Moh",
  "7754": " CBS",
  "7755": " Kent",
  "7756": "agg",
  "7757": "LC",
  "7758": " shares",
  "7759": " mainly",
  "7760": "ules",
  "7761": " operate",
  "7762": " compete",
  "7763": "herent",
  "7764": "imore",
  "7765": " CD",
  "7766": "cr",
  "7767": " Water",
  "7768": " Fair",
  "7769": "portion",
  "7770": " scoring",
  "7771": " disaster",
  "7772": " behalf",
  "7773": " teaching",
  "7774": " discipl",
  "7775": " deeper",
  "7776": "UN",
  "7777": " ticket",
  "7778": " prominent",
  "7779": " nut",
  "7780": " deck",
  "7781": "otted",
  "7782": "UST",
  "7783": " veget",
  "7784": " root",
  "7785": " recip",
  "7786": " comic",
  "7787": " Thus",
  "7788": "oj",
  "7789": "lah",
  "7790": "bal",
  "7791": " indicate",
  "7792": "burgh",
  "7793": " scream",
  "7794": " backed",
  "7795": " 44",
  "7796": "anna",
  "7797": " saved",
  "7798": "%.",
  "7799": " sharp",
  "7800": " delivery",
  "7801": " Senator",
  "7802": " McG",
  "7803": "viously",
  "7804": " Zealand",
  "7805": " Manchester",
  "7806": " Call",
  "7807": " taxp",
  "7808": " bra",
  "7809": "auc",
  "7810": "Dav",
  "7811": " airport",
  "7812": " advis",
  "7813": " uniform",
  "7814": " strikes",
  "7815": " headed",
  "7816": " Pot",
  "7817": "ads",
  "7818": " reduction",
  "7819": " priority",
  "7820": " engineering",
  "7821": "aska",
  "7822": " machines",
  "7823": " OS",
  "7824": " Come",
  "7825": "usive",
  "7826": "ulating",
  "7827": " stable",
  "7828": "arsh",
  "7829": "ML",
  "7830": " websites",
  "7831": "aching",
  "7832": "Us",
  "7833": " Greg",
  "7834": " struggling",
  "7835": " gift",
  "7836": " everywhere",
  "7837": " Food",
  "7838": "ATE",
  "7839": " thick",
  "7840": " ridic",
  "7841": " creates",
  "7842": "quarters",
  "7843": "ifest",
  "7844": " photograph",
  "7845": " Lew",
  "7846": " Coast",
  "7847": "uine",
  "7848": "ilton",
  "7849": " tag",
  "7850": "month",
  "7851": "chain",
  "7852": "adi",
  "7853": " illness",
  "7854": "thew",
  "7855": "ba",
  "7856": " blind",
  "7857": " Diego",
  "7858": " ë",
  "7859": " poly",
  "7860": " 55",
  "7861": "found",
  "7862": "TH",
  "7863": " Fred",
  "7864": " withdraw",
  "7865": " 46",
  "7866": "",
  "7867": "iel",
  "7868": " wonderful",
  "7869": " Football",
  "7870": " walls",
  "7871": " minority",
  "7872": " Royal",
  "7873": " scenario",
  "7874": " participate",
  "7875": " containing",
  "7876": " acceler",
  "7877": " Academy",
  "7878": " losses",
  "7879": "engers",
  "7880": "97",
  "7881": "emen",
  "7882": "Those",
  "7883": "Co",
  "7884": " shortly",
  "7885": " Town",
  "7886": " PS",
  "7887": " 43",
  "7888": " corruption",
  "7889": "weet",
  "7890": "aron",
  "7891": " collapse",
  "7892": " Parliament",
  "7893": " overse",
  "7894": " flaw",
  "7895": " Anthony",
  "7896": ".\"[",
  "7897": " rose",
  "7898": " sup",
  "7899": " bridge",
  "7900": " algorith",
  "7901": " Atlanta",
  "7902": " ?",
  "7903": "ounced",
  "7904": " Ger",
  "7905": " symptoms",
  "7906": " achieved",
  "7907": " Market",
  "7908": " Invest",
  "7909": " Conference",
  "7910": "ependent",
  "7911": "aning",
  "7912": " magn",
  "7913": " Development",
  "7914": "who",
  "7915": "this",
  "7916": "from",
  "7917": " uncom",
  "7918": " Alabama",
  "7919": " recognition",
  "7920": " portion",
  "7921": " inev",
  "7922": " forever",
  "7923": " arrange",
  "7924": " Tenn",
  "7925": " Major",
  "7926": "ancou",
  "7927": "abs",
  "7928": " movements",
  "7929": " gam",
  "7930": "dem",
  "7931": " Veg",
  "7932": " IT",
  "7933": "pread",
  "7934": "Before",
  "7935": "opher",
  "7936": " wages",
  "7937": " recru",
  "7938": "teen",
  "7939": "away",
  "7940": "oured",
  "7941": "itals",
  "7942": " restrictions",
  "7943": "wr",
  "7944": "profit",
  "7945": "interest",
  "7946": "idespread",
  "7947": "athered",
  "7948": " neutral",
  "7949": " journalist",
  "7950": "ni",
  "7951": " vary",
  "7952": " About",
  "7953": "86",
  "7954": " beliefs",
  "7955": " Stone",
  "7956": " SP",
  "7957": "yard",
  "7958": "))",
  "7959": " scholars",
  "7960": " laid",
  "7961": " lists",
  "7962": " convin",
  "7963": " upset",
  "7964": " Program",
  "7965": " Has",
  "7966": "ione",
  "7967": " sacr",
  "7968": " discrimination",
  "7969": " deliber",
  "7970": "aus",
  "7971": "400",
  "7972": " behaviour",
  "7973": " structures",
  "7974": " founded",
  "7975": "inking",
  "7976": " Bang",
  "7977": " spr",
  "7978": " interviews",
  "7979": " recording",
  "7980": "oenix",
  "7981": "ancouver",
  "7982": " reducing",
  "7983": " Win",
  "7984": " Oak",
  "7985": " rely",
  "7986": " nominee",
  "7987": "ogen",
  "7988": " Haj",
  "7989": " tip",
  "7990": " ren",
  "7991": " implementation",
  "7992": " banned",
  "7993": " ownership",
  "7994": " Music",
  "7995": "etime",
  "7996": " ethnic",
  "7997": " Philipp",
  "7998": "inder",
  "7999": "53",
  "8000": " tackle",
  "8001": "icking",
  "8002": "Col",
  "8003": " Review",
  "8004": " Philadelphia",
  "8005": " tur",
  "8006": " interface",
  "8007": " eastern",
  "8008": " doors",
  "8009": "po",
  "8010": " suggesting",
  "8011": " steel",
  "8012": " computers",
  "8013": "lete",
  "8014": " remem",
  "8015": " indicated",
  "8016": " Mid",
  "8017": "mann",
  "8018": "flix",
  "8019": " ocean",
  "8020": "ye",
  "8021": "uction",
  "8022": " hired",
  "8023": " barely",
  "8024": "rative",
  "8025": "rous",
  "8026": "rolled",
  "8027": "omething",
  "8028": " drawing",
  "8029": " Point",
  "8030": "heast",
  "8031": "front",
  "8032": "elect",
  "8033": "Pr",
  "8034": " convicted",
  "8035": " Nob",
  "8036": " ABC",
  "8037": "ashes",
  "8038": "Star",
  "8039": " trained",
  "8040": " intellectual",
  "8041": " formal",
  "8042": " progressive",
  "8043": " Hay",
  "8044": "ouch",
  "8045": "angel",
  "8046": " edition",
  "8047": " VR",
  "8048": "Ed",
  "8049": " destruction",
  "8050": " legend",
  "8051": " dinner",
  "8052": " Anton",
  "8053": " touchdown",
  "8054": " Emp",
  "8055": "asion",
  "8056": "arrass",
  "8057": " Rose",
  "8058": "osexual",
  "8059": " visible",
  "8060": " Saf",
  "8061": "HA",
  "8062": " shock",
  "8063": " cos",
  "8064": " Series",
  "8065": " reaching",
  "8066": " genetic",
  "8067": " Perhaps",
  "8068": "ester",
  "8069": "antic",
  "8070": " wheel",
  "8071": " establishment",
  "8072": " widespread",
  "8073": " lights",
  "8074": " county",
  "8075": " Hom",
  "8076": "world",
  "8077": "lessly",
  "8078": " strict",
  "8079": "gent",
  "8080": " corporations",
  "8081": " Full",
  "8082": " reprodu",
  "8083": " Op",
  "8084": "she",
  "8085": "Sm",
  "8086": " begun",
  "8087": " NSA",
  "8088": " Dead",
  "8089": "izon",
  "8090": " elev",
  "8091": " concert",
  "8092": "Me",
  "8093": " foundation",
  "8094": " contained",
  "8095": "lan",
  "8096": " terr",
  "8097": " propag",
  "8098": " fantasy",
  "8099": " bub",
  "8100": " Snow",
  "8101": " friendly",
  "8102": "maker",
  "8103": "aying",
  "8104": " versus",
  "8105": " philosophy",
  "8106": " Further",
  "8107": " farmers",
  "8108": " Greek",
  "8109": " framework",
  "8110": " Patrick",
  "8111": "ked",
  "8112": " corn",
  "8113": "lahoma",
  "8114": "RI",
  "8115": "President",
  "8116": " thrown",
  "8117": " Judge",
  "8118": " Fund",
  "8119": " ju",
  "8120": " convinced",
  "8121": " Lind",
  "8122": "olen",
  "8123": "bro",
  "8124": " toler",
  "8125": " processing",
  "8126": " joining",
  "8127": " entering",
  "8128": " Radio",
  "8129": " Rus",
  "8130": " Rick",
  "8131": "Look",
  "8132": " util",
  "8133": " exposure",
  "8134": " devast",
  "8135": " awareness",
  "8136": " Ins",
  "8137": "pload",
  "8138": " burd",
  "8139": "page",
  "8140": "leveland",
  "8141": " independence",
  "8142": " finger",
  "8143": " McCain",
  "8144": " Es",
  "8145": "xic",
  "8146": " Mayor",
  "8147": " rapidly",
  "8148": " disagree",
  "8149": " Po",
  "8150": "sylv",
  "8151": " unemployment",
  "8152": " concrete",
  "8153": " challenging",
  "8154": " steal",
  "8155": " notion",
  "8156": " loyal",
  "8157": " genuine",
  "8158": " footage",
  "8159": "riers",
  "8160": "rical",
  "8161": "cription",
  "8162": " jury",
  "8163": " citizen",
  "8164": " cha",
  "8165": " Albert",
  "8166": "ho",
  "8167": "amsung",
  "8168": "::",
  "8169": " transgender",
  "8170": " minds",
  "8171": " Three",
  "8172": " 41",
  "8173": "89",
  "8174": " robot",
  "8175": " rook",
  "8176": " moon",
  "8177": " deputy",
  "8178": "making",
  "8179": "Under",
  "8180": "2016",
  "8181": " unclear",
  "8182": " racist",
  "8183": " Ministry",
  "8184": " Mir",
  "8185": " Little",
  "8186": "51",
  "8187": " resource",
  "8188": " Pack",
  "8189": " smoke",
  "8190": " invited",
  "8191": "Ne",
  "8192": " recognized",
  "8193": " invent",
  "8194": "76",
  "8195": " initiative",
  "8196": "oding",
  "8197": " skept",
  "8198": " firms",
  "8199": "power",
  "8200": " hitting",
  "8201": " Medical",
  "8202": "About",
  "8203": " tickets",
  "8204": " fiction",
  "8205": " carefully",
  "8206": " Tour",
  "8207": " Centre",
  "8208": " technique",
  "8209": "repre",
  "8210": " recover",
  "8211": "imm",
  "8212": "TP",
  "8213": " vital",
  "8214": " proven",
  "8215": " hardly",
  "8216": " IM",
  "8217": " welf",
  "8218": " tor",
  "8219": " retired",
  "8220": " mining",
  "8221": " Note",
  "8222": "eman",
  "8223": " exclusive",
  "8224": " Education",
  "8225": " Administration",
  "8226": "pa",
  "8227": "obs",
  "8228": "esh",
  "8229": " outs",
  "8230": " alien",
  "8231": " Hell",
  "8232": "rec",
  "8233": " comprehens",
  "8234": " attached",
  "8235": "Sub",
  "8236": "74",
  "8237": " prosec",
  "8238": " episodes",
  "8239": "udes",
  "8240": " stadium",
  "8241": " democratic",
  "8242": " Scient",
  "8243": " Cur",
  "8244": " Ale",
  "8245": "Te",
  "8246": " substantial",
  "8247": " ships",
  "8248": "alling",
  "8249": "sylvania",
  "8250": " photograp",
  "8251": " logic",
  "8252": " anybody",
  "8253": " 52",
  "8254": "iability",
  "8255": "door",
  "8256": " shr",
  "8257": " discovery",
  "8258": " collective",
  "8259": " 1998",
  "8260": "ã¼",
  "8261": " welfare",
  "8262": " pig",
  "8263": " equally",
  "8264": "reprene",
  "8265": "ources",
  "8266": "Note",
  "8267": " speaks",
  "8268": " elig",
  "8269": " colors",
  "8270": " association",
  "8271": " ESP",
  "8272": " CA",
  "8273": " receiver",
  "8274": " inflation",
  "8275": " ho",
  "8276": " Santa",
  "8277": " ultimate",
  "8278": " intervention",
  "8279": " cogn",
  "8280": "iley",
  "8281": " Gov",
  "8282": "usted",
  "8283": " subsequent",
  "8284": " producer",
  "8285": " borrow",
  "8286": " featuring",
  "8287": " Marc",
  "8288": " settle",
  "8289": " AD",
  "8290": "umes",
  "8291": " scandal",
  "8292": " premium",
  "8293": " handful",
  "8294": " Kingdom",
  "8295": " Baltimore",
  "8296": "inois",
  "8297": " regulation",
  "8298": " Season",
  "8299": " Ret",
  "8300": " expanded",
  "8301": " dance",
  "8302": " campaigns",
  "8303": "ria",
  "8304": " wars",
  "8305": " synt",
  "8306": " humanity",
  "8307": "owing",
  "8308": " trem",
  "8309": " prisoners",
  "8310": " complaints",
  "8311": " 1960",
  "8312": "Ðº",
  "8313": "oval",
  "8314": " improvements",
  "8315": " fallen",
  "8316": " asks",
  "8317": "cific",
  "8318": " papers",
  "8319": " hide",
  "8320": "aret",
  "8321": " reven",
  "8322": " clothes",
  "8323": " Key",
  "8324": " plate",
  "8325": " incorpor",
  "8326": " diversity",
  "8327": " anger",
  "8328": " Arm",
  "8329": "uma",
  "8330": "intendo",
  "8331": " soph",
  "8332": " OK",
  "8333": " HD",
  "8334": "uce",
  "8335": "oga",
  "8336": "eneration",
  "8337": "appy",
  "8338": " prepare",
  "8339": " Ott",
  "8340": " Hor",
  "8341": " hook",
  "8342": " exceed",
  "8343": " disturb",
  "8344": " Columbia",
  "8345": "etts",
  "8346": " sensitive",
  "8347": " reviews",
  "8348": " km",
  "8349": " fears",
  "8350": " Navy",
  "8351": "writ",
  "8352": " suspected",
  "8353": " brothers",
  "8354": "\",\"",
  "8355": " advocates",
  "8356": "uted",
  "8357": " smooth",
  "8358": " purchased",
  "8359": " entertainment",
  "8360": " embarrass",
  "8361": " Vancouver",
  "8362": " Portland",
  "8363": "umer",
  "8364": "ropri",
  "8365": "iano",
  "8366": " exception",
  "8367": " Next",
  "8368": "mate",
  "8369": "Script",
  "8370": "Related",
  "8371": " respectively",
  "8372": " extend",
  "8373": " controversy",
  "8374": "rators",
  "8375": " Denver",
  "8376": "!)",
  "8377": " crop",
  "8378": " NAT",
  "8379": "uper",
  "8380": "then",
  "8381": "iti",
  "8382": " constitutional",
  "8383": " ON",
  "8384": "ommod",
  "8385": "jo",
  "8386": "eland",
  "8387": " upgrade",
  "8388": " tone",
  "8389": " producing",
  "8390": "Russ",
  "8391": " viewed",
  "8392": " testim",
  "8393": " incent",
  "8394": " gear",
  "8395": " fulf",
  "8396": " contribute",
  "8397": "achus",
  "8398": " serves",
  "8399": " overwhelming",
  "8400": " homeless",
  "8401": " Latin",
  "8402": " attacking",
  "8403": "iversary",
  "8404": " shame",
  "8405": " involvement",
  "8406": " fab",
  "8407": " Luc",
  "8408": " Jay",
  "8409": " Hind",
  "8410": "des",
  "8411": " scores",
  "8412": " unex",
  "8413": "ultural",
  "8414": "azz",
  "8415": " salary",
  "8416": " representative",
  "8417": " cannabis",
  "8418": " Environment",
  "8419": " Dig",
  "8420": " Bh",
  "8421": "amac",
  "8422": " dynamic",
  "8423": " Action",
  "8424": " tail",
  "8425": " peak",
  "8426": " grounds",
  "8427": "Ù",
  "8428": "ca",
  "8429": " dramatic",
  "8430": " Golden",
  "8431": " Did",
  "8432": "++",
  "8433": " throwing",
  "8434": "wered",
  "8435": "GO",
  "8436": " description",
  "8437": "mad",
  "8438": " perpet",
  "8439": " counts",
  "8440": " offices",
  "8441": " involves",
  "8442": " Report",
  "8443": "Will",
  "8444": " Howard",
  "8445": "mission",
  "8446": " electronic",
  "8447": " bureau",
  "8448": " Pent",
  "8449": "text",
  "8450": " referring",
  "8451": " rif",
  "8452": " History",
  "8453": "RL",
  "8454": " Such",
  "8455": "worth",
  "8456": "'.",
  "8457": " depression",
  "8458": " Never",
  "8459": "ictions",
  "8460": " puzz",
  "8461": " hang",
  "8462": " external",
  "8463": " disrupt",
  "8464": " brill",
  "8465": " attitude",
  "8466": "vision",
  "8467": "ogs",
  "8468": " normally",
  "8469": " listening",
  "8470": " Disney",
  "8471": " stayed",
  "8472": " recommended",
  "8473": " monthly",
  "8474": " medicine",
  "8475": " investigating",
  "8476": " Sat",
  "8477": "geon",
  "8478": "annels",
  "8479": " ignore",
  "8480": " frag",
  "8481": " 1996",
  "8482": "</",
  "8483": " connections",
  "8484": " alter",
  "8485": " accus",
  "8486": "phones",
  "8487": "dney",
  "8488": " enormous",
  "8489": " astron",
  "8490": " rational",
  "8491": " publication",
  "8492": " Pennsylvania",
  "8493": " estimate",
  "8494": " FA",
  "8495": " Arabia",
  "8496": "uits",
  "8497": "eria",
  "8498": "acon",
  "8499": "acco",
  "8500": " efficiency",
  "8501": " Square",
  "8502": " Cleveland",
  "8503": " Ø",
  "8504": "achusetts",
  "8505": " languages",
  "8506": " bail",
  "8507": "ira",
  "8508": " virtually",
  "8509": " statistics",
  "8510": " raw",
  "8511": " Revolution",
  "8512": " Ly",
  "8513": " Code",
  "8514": "rot",
  "8515": "html",
  "8516": "PP",
  "8517": " quote",
  "8518": " licens",
  "8519": " stupid",
  "8520": " samples",
  "8521": " inject",
  "8522": " Queen",
  "8523": " Harris",
  "8524": " sugar",
  "8525": " menu",
  "8526": " casual",
  "8527": " List",
  "8528": " Jac",
  "8529": "ologists",
  "8530": "85",
  "8531": " march",
  "8532": "core",
  "8533": " suffer",
  "8534": " liquid",
  "8535": " amid",
  "8536": " abst",
  "8537": " Walker",
  "8538": " Ext",
  "8539": " affairs",
  "8540": " Roy",
  "8541": " Pitt",
  "8542": "ective",
  "8543": " princip",
  "8544": " conce",
  "8545": " admit",
  "8546": "ito",
  "8547": "iry",
  "8548": "SI",
  "8549": " Bad",
  "8550": "fare",
  "8551": " screens",
  "8552": " personality",
  "8553": " hint",
  "8554": "case",
  "8555": "SD",
  "8556": " yellow",
  "8557": " temperatures",
  "8558": " lowest",
  "8559": " holiday",
  "8560": "ndum",
  "8561": "itionally",
  "8562": "hour",
  "8563": "ds",
  "8564": "annon",
  "8565": " salt",
  "8566": " ranked",
  "8567": " authent",
  "8568": " Allen",
  "8569": "olph",
  "8570": "iverpool",
  "8571": "igrant",
  "8572": " remarks",
  "8573": " accommod",
  "8574": " Brother",
  "8575": " 1997",
  "8576": "senal",
  "8577": "amacare",
  "8578": "Black",
  "8579": " origin",
  "8580": " ingred",
  "8581": "rapped",
  "8582": " jur",
  "8583": " Rand",
  "8584": "ã®",
  "8585": "mary",
  "8586": " flash",
  "8587": " Oklahoma",
  "8588": " Museum",
  "8589": " surf",
  "8590": " presum",
  "8591": " plain",
  "8592": " implemented",
  "8593": " Professor",
  "8594": "CT",
  "8595": " visitors",
  "8596": " unions",
  "8597": " sorry",
  "8598": " rom",
  "8599": " luck",
  "8600": " fiscal",
  "8601": " ESPN",
  "8602": " rural",
  "8603": " pump",
  "8604": " overt",
  "8605": " heading",
  "8606": "unes",
  "8607": "Che",
  "8608": " transportation",
  "8609": " missile",
  "8610": " roads",
  "8611": " AND",
  "8612": " Fed",
  "8613": "Where",
  "8614": " trave",
  "8615": " preced",
  "8616": " platforms",
  "8617": " chapter",
  "8618": " Head",
  "8619": " Ali",
  "8620": "yo",
  "8621": "essel",
  "8622": " gathered",
  "8623": " Family",
  "8624": "uties",
  "8625": "arms",
  "8626": "Both",
  "8627": "69",
  "8628": " terrorists",
  "8629": " strategic",
  "8630": " legitimate",
  "8631": " encouraged",
  "8632": " attempting",
  "8633": " 53",
  "8634": "lad",
  "8635": "abet",
  "8636": "GE",
  "8637": " iP",
  "8638": " fro",
  "8639": " console",
  "8640": "cut",
  "8641": " Mean",
  "8642": "ð",
  "8643": " waves",
  "8644": " shoulder",
  "8645": " seemingly",
  "8646": " grav",
  "8647": " boat",
  "8648": " arr",
  "8649": " Ref",
  "8650": " Ontario",
  "8651": " Mah",
  "8652": " III",
  "8653": "agic",
  "8654": "News",
  "8655": "FF",
  "8656": " sty",
  "8657": " sevent",
  "8658": " investigate",
  "8659": " Trade",
  "8660": " races",
  "8661": " da",
  "8662": " covers",
  "8663": ".-",
  "8664": " obtain",
  "8665": " drew",
  "8666": "king",
  "8667": " tea",
  "8668": " closing",
  "8669": " clim",
  "8670": "Ä",
  "8671": "thon",
  "8672": "abeth",
  "8673": " celeb",
  "8674": " Cre",
  "8675": " universities",
  "8676": " ballot",
  "8677": "cover",
  "8678": " resign",
  "8679": " legs",
  "8680": " Community",
  "8681": "Her",
  "8682": " practical",
  "8683": " improvement",
  "8684": " Turkish",
  "8685": "ystem",
  "8686": "87",
  "8687": "800",
  "8688": "helsea",
  "8689": " ham",
  "8690": " branch",
  "8691": "rator",
  "8692": " appreciate",
  "8693": "ped",
  "8694": "including",
  "8695": "don",
  "8696": " tasks",
  "8697": " depos",
  "8698": " conspiracy",
  "8699": " careful",
  "8700": " Buff",
  "8701": " Illinois",
  "8702": " foss",
  "8703": "ì",
  "8704": " tweeted",
  "8705": " mo",
  "8706": " guarantee",
  "8707": "othing",
  "8708": "bi",
  "8709": "Art",
  "8710": " handed",
  "8711": " Master",
  "8712": " Ba",
  "8713": " tomorrow",
  "8714": " providers",
  "8715": "riors",
  "8716": "claim",
  "8717": " firing",
  "8718": " Hard",
  "8719": " Chair",
  "8720": " depends",
  "8721": " consistently",
  "8722": " Stat",
  "8723": " Brew",
  "8724": "iences",
  "8725": " settlement",
  "8726": " conversations",
  "8727": " Ra",
  "8728": " rhet",
  "8729": " discussions",
  "8730": " disorder",
  "8731": " Ren",
  "8732": " Massachusetts",
  "8733": " drama",
  "8734": "bn",
  "8735": " revel",
  "8736": " Intelligence",
  "8737": "aka",
  "8738": " ignored",
  "8739": " horror",
  "8740": " compe",
  "8741": " Without",
  "8742": " NC",
  "8743": " Cooper",
  "8744": " mistakes",
  "8745": " McK",
  "8746": "ported",
  "8747": "aval",
  "8748": "Who",
  "8749": " servers",
  "8750": " register",
  "8751": " portray",
  "8752": "eding",
  "8753": " suspended",
  "8754": " incidents",
  "8755": " distract",
  "8756": " Guardian",
  "8757": " Core",
  "8758": "plete",
  "8759": "HT",
  "8760": " reliable",
  "8761": " phrase",
  "8762": " overs",
  "8763": " extraord",
  "8764": " entitled",
  "8765": " Netflix",
  "8766": " Bridge",
  "8767": "iere",
  "8768": " opinions",
  "8769": " Freedom",
  "8770": "hot",
  "8771": " spaces",
  "8772": " marks",
  "8773": " dub",
  "8774": " Use",
  "8775": " Information",
  "8776": "Ste",
  "8777": " replied",
  "8778": " Check",
  "8779": " threw",
  "8780": " displ",
  "8781": " demonstrated",
  "8782": " Hajime",
  "8783": "Ã±",
  "8784": "zed",
  "8785": "ivals",
  "8786": " sin",
  "8787": " passengers",
  "8788": "rets",
  "8789": "Ref",
  "8790": " captain",
  "8791": "iban",
  "8792": " reads",
  "8793": " mountain",
  "8794": " deficit",
  "8795": " Indeed",
  "8796": " layer",
  "8797": " grid",
  "8798": " activist",
  "8799": " Ur",
  "8800": " Matthew",
  "8801": "ntil",
  "8802": "ecut",
  "8803": " gains",
  "8804": "ourse",
  "8805": " inequ",
  "8806": " UFC",
  "8807": "ammed",
  "8808": " mun",
  "8809": " improving",
  "8810": " Technology",
  "8811": " 51",
  "8812": "ificial",
  "8813": "SC",
  "8814": " hockey",
  "8815": " acquired",
  "8816": " NOT",
  "8817": "scale",
  "8818": "##",
  "8819": " twenty",
  "8820": " tries",
  "8821": " landscape",
  "8822": " Unfortunately",
  "8823": "mat",
  "8824": " noting",
  "8825": " judges",
  "8826": " Cameron",
  "8827": "aping",
  "8828": " Tri",
  "8829": " universal",
  "8830": " absence",
  "8831": " 1995",
  "8832": "eries",
  "8833": "\")",
  "8834": " mad",
  "8835": " insisted",
  "8836": " contributions",
  "8837": "ounce",
  "8838": " Which",
  "8839": " Gun",
  "8840": "inch",
  "8841": " objective",
  "8842": " Kennedy",
  "8843": "ompson",
  "8844": " sequence",
  "8845": " ranks",
  "8846": " joke",
  "8847": " Gulf",
  "8848": " Bernie",
  "8849": "vard",
  "8850": "Please",
  "8851": " breaks",
  "8852": "uten",
  "8853": "only",
  "8854": "isp",
  "8855": "72",
  "8856": " restaurants",
  "8857": " predicted",
  "8858": " literature",
  "8859": " failing",
  "8860": " exch",
  "8861": " lucky",
  "8862": " commonly",
  "8863": " WW",
  "8864": " Make",
  "8865": " Kansas",
  "8866": " Ippo",
  "8867": " na",
  "8868": " hung",
  "8869": " Ice",
  "8870": " Conservative",
  "8871": "ihad",
  "8872": "ieties",
  "8873": " usage",
  "8874": " legacy",
  "8875": " ax",
  "8876": " Nintendo",
  "8877": "ington",
  "8878": "Ass",
  "8879": " investigators",
  "8880": "hop",
  "8881": " saving",
  "8882": " highlights",
  "8883": " covering",
  "8884": " Death",
  "8885": "iate",
  "8886": " spokesperson",
  "8887": " protocol",
  "8888": " equality",
  "8889": " dismissed",
  "8890": "plus",
  "8891": "apolis",
  "8892": " virus",
  "8893": " referendum",
  "8894": " Vegas",
  "8895": " Share",
  "8896": " Niger",
  "8897": " fighter",
  "8898": "ijing",
  "8899": "high",
  "8900": " mice",
  "8901": " criticized",
  "8902": " insist",
  "8903": " Phoenix",
  "8904": "keep",
  "8905": " settings",
  "8906": " racism",
  "8907": " documentary",
  "8908": " coaches",
  "8909": " Battle",
  "8910": "https",
  "8911": "Sen",
  "8912": " porn",
  "8913": " horse",
  "8914": " Getty",
  "8915": " %",
  "8916": "73",
  "8917": " violation",
  "8918": " ratings",
  "8919": " fantastic",
  "8920": " divided",
  "8921": "VE",
  "8922": " waters",
  "8923": " centers",
  "8924": " Mexican",
  "8925": "type",
  "8926": "eters",
  "8927": " lands",
  "8928": " falls",
  "8929": " earthqu",
  "8930": " comedy",
  "8931": " channels",
  "8932": " Broad",
  "8933": " Bible",
  "8934": " Ball",
  "8935": "icism",
  "8936": " Expl",
  "8937": " voter",
  "8938": " silver",
  "8939": " milk",
  "8940": " acknowledged",
  "8941": " Jenn",
  "8942": "ught",
  "8943": "79",
  "8944": " ratio",
  "8945": " neck",
  "8946": " euro",
  "8947": " Sydney",
  "8948": " None",
  "8949": " tracking",
  "8950": " partnership",
  "8951": " approached",
  "8952": " Pres",
  "8953": "David",
  "8954": "600",
  "8955": " civilians",
  "8956": " buff",
  "8957": " actors",
  "8958": " responses",
  "8959": " profits",
  "8960": " performing",
  "8961": " naturally",
  "8962": " assigned",
  "8963": " Pass",
  "8964": " Eag",
  "8965": " factory",
  "8966": " Patri",
  "8967": " Cook",
  "8968": " 1994",
  "8969": " petition",
  "8970": " obs",
  "8971": " instrument",
  "8972": " employed",
  "8973": " capabilities",
  "8974": " Austin",
  "8975": "heim",
  "8976": " monitor",
  "8977": "was",
  "8978": "itter",
  "8979": " visiting",
  "8980": " trials",
  "8981": " transactions",
  "8982": " hoped",
  "8983": " Vietnam",
  "8984": " Hospital",
  "8985": "Fl",
  "8986": " studied",
  "8987": " Roberts",
  "8988": " checks",
  "8989": " abandoned",
  "8990": " Kat",
  "8991": " (â",
  "8992": " forest",
  "8993": " adventure",
  "8994": " Las",
  "8995": " Associated",
  "8996": "argo",
  "8997": "abe",
  "8998": " funded",
  "8999": " entr",
  "9000": " ec",
  "9001": " Xbox",
  "9002": "Still",
  "9003": " shit",
  "9004": " locked",
  "9005": " Pop",
  "9006": "Ã³n",
  "9007": "RS",
  "9008": " handling",
  "9009": " entreprene",
  "9010": " Anderson",
  "9011": "izabeth",
  "9012": " swing",
  "9013": " Samsung",
  "9014": " Prop",
  "9015": " Kar",
  "9016": "ocument",
  "9017": " smell",
  "9018": " addressed",
  "9019": "backs",
  "9020": "aeda",
  "9021": "VP",
  "9022": " joy",
  "9023": " Start",
  "9024": "\".[",
  "9025": " jun",
  "9026": " cust",
  "9027": " Beck",
  "9028": " Ap",
  "9029": " â",
  "9030": " wrest",
  "9031": " tactics",
  "9032": " supplies",
  "9033": " ->",
  "9034": "pled",
  "9035": " Vill",
  "9036": " Atlantic",
  "9037": "zing",
  "9038": "ordon",
  "9039": " scientist",
  "9040": " inner",
  "9041": " cow",
  "9042": " Wik",
  "9043": " DO",
  "9044": " Chron",
  "9045": " stake",
  "9046": " shout",
  "9047": " ramp",
  "9048": " pref",
  "9049": " measured",
  "9050": " innovation",
  "9051": " ×",
  "9052": "enh",
  "9053": " letting",
  "9054": " Sony",
  "9055": "gus",
  "9056": " stone",
  "9057": " promises",
  "9058": "irts",
  "9059": " whenever",
  "9060": " stolen",
  "9061": " playoffs",
  "9062": " monitoring",
  "9063": " diverse",
  "9064": " Spring",
  "9065": "dit",
  "9066": "ctr",
  "9067": " symp",
  "9068": " rookie",
  "9069": " ordinary",
  "9070": " midfield",
  "9071": " fruit",
  "9072": " Data",
  "9073": "Back",
  "9074": " musical",
  "9075": " subscrib",
  "9076": " replacement",
  "9077": " reader",
  "9078": " hip",
  "9079": " assessment",
  "9080": "Å",
  "9081": " senator",
  "9082": " butt",
  "9083": " Bureau",
  "9084": "ynch",
  "9085": " mathem",
  "9086": " Warren",
  "9087": "bered",
  "9088": "Post",
  "9089": " nomination",
  "9090": "Part",
  "9091": " sorts",
  "9092": " Scottish",
  "9093": " Photos",
  "9094": " Mississ",
  "9095": "fr",
  "9096": "aki",
  "9097": "Your",
  "9098": "Cons",
  "9099": " spokeswoman",
  "9100": " secondary",
  "9101": " Acc",
  "9102": "mans",
  "9103": " ministry",
  "9104": " Ha",
  "9105": "trans",
  "9106": " warn",
  "9107": " Yeah",
  "9108": " Marsh",
  "9109": " Iraqi",
  "9110": " Ho",
  "9111": "uh",
  "9112": " theat",
  "9113": " lets",
  "9114": " Obamacare",
  "9115": " Friend",
  "9116": "AF",
  "9117": "63",
  "9118": " chat",
  "9119": "they",
  "9120": " forcing",
  "9121": " accomplish",
  "9122": " Bron",
  "9123": "organ",
  "9124": " warrant",
  "9125": " encounter",
  "9126": " assign",
  "9127": " argues",
  "9128": " Abb",
  "9129": "inction",
  "9130": "comes",
  "9131": " distributed",
  "9132": " Taliban",
  "9133": " Moon",
  "9134": " Age",
  "9135": "shire",
  "9136": "jan",
  "9137": "agh",
  "9138": " representing",
  "9139": " programme",
  "9140": " introduce",
  "9141": " differently",
  "9142": " Tro",
  "9143": " Stadium",
  "9144": " â¬",
  "9145": " tips",
  "9146": " dates",
  "9147": " Wolf",
  "9148": "orous",
  "9149": "itage",
  "9150": "ateral",
  "9151": "Though",
  "9152": " quoted",
  "9153": " Ult",
  "9154": " Az",
  "9155": "dri",
  "9156": "crib",
  "9157": "61",
  "9158": " maintained",
  "9159": " drove",
  "9160": " conventional",
  "9161": " bars",
  "9162": " auto",
  "9163": "ila",
  "9164": " manifest",
  "9165": " maps",
  "9166": "xit",
  "9167": "plate",
  "9168": "encing",
  "9169": " temporary",
  "9170": " congressional",
  "9171": " blocked",
  "9172": " tiss",
  "9173": " noise",
  "9174": " guitar",
  "9175": " deadly",
  "9176": " Carter",
  "9177": "pack",
  "9178": "arity",
  "9179": " arrive",
  "9180": " Gaza",
  "9181": "ï¿½",
  "9182": "quest",
  "9183": "ceptions",
  "9184": " importantly",
  "9185": " barrel",
  "9186": " Jonathan",
  "9187": "ounding",
  "9188": " cul",
  "9189": " spoken",
  "9190": " soccer",
  "9191": " silence",
  "9192": " politically",
  "9193": " copies",
  "9194": " Sarah",
  "9195": " weigh",
  "9196": " smoking",
  "9197": " populations",
  "9198": " loans",
  "9199": " athletes",
  "9200": "made",
  "9201": " surely",
  "9202": " revers",
  "9203": " Justin",
  "9204": "section",
  "9205": " urged",
  "9206": " tonight",
  "9207": " introduction",
  "9208": " consent",
  "9209": "umin",
  "9210": "Pre",
  "9211": " swim",
  "9212": " lobby",
  "9213": " hyper",
  "9214": " drone",
  "9215": "ibl",
  "9216": " trigger",
  "9217": " tie",
  "9218": " submitted",
  "9219": " shopping",
  "9220": " bot",
  "9221": " Does",
  "9222": "step",
  "9223": "iy",
  "9224": " lying",
  "9225": " bonus",
  "9226": "jud",
  "9227": " sear",
  "9228": " relax",
  "9229": " guest",
  "9230": " Was",
  "9231": " NATO",
  "9232": " Liverpool",
  "9233": " Der",
  "9234": "assador",
  "9235": " iOS",
  "9236": " headquarters",
  "9237": " experiments",
  "9238": "Facebook",
  "9239": " wealthy",
  "9240": " streaming",
  "9241": " healthcare",
  "9242": " focusing",
  "9243": "2015",
  "9244": " Connect",
  "9245": " Cow",
  "9246": "Ð¼",
  "9247": "rient",
  "9248": "oded",
  "9249": "fund",
  "9250": "Yet",
  "9251": "AND",
  "9252": " threatening",
  "9253": " stages",
  "9254": " paralle",
  "9255": " festival",
  "9256": " blast",
  "9257": " Utah",
  "9258": " Sus",
  "9259": " Control",
  "9260": " semi",
  "9261": " Cost",
  "9262": "otype",
  "9263": "essee",
  "9264": "emed",
  "9265": " prepar",
  "9266": " fur",
  "9267": " celebrate",
  "9268": " Plus",
  "9269": " CH",
  "9270": " Ast",
  "9271": "orable",
  "9272": " weekly",
  "9273": " odds",
  "9274": " Sometimes",
  "9275": " Marvel",
  "9276": " popularity",
  "9277": " Girl",
  "9278": " Bra",
  "9279": "yer",
  "9280": "ippi",
  "9281": "SE",
  "9282": " windows",
  "9283": " protecting",
  "9284": " circle",
  "9285": " absor",
  "9286": " Creat",
  "9287": "62",
  "9288": " tape",
  "9289": " roof",
  "9290": " knee",
  "9291": " beauty",
  "9292": " PA",
  "9293": " Dream",
  "9294": " Corpor",
  "9295": "isons",
  "9296": "RC",
  "9297": " hydro",
  "9298": " clock",
  "9299": " Trib",
  "9300": " Dave",
  "9301": " brilliant",
  "9302": " appearances",
  "9303": " Jam",
  "9304": "unity",
  "9305": "rooms",
  "9306": "pton",
  "9307": "pie",
  "9308": "ahu",
  "9309": " spiritual",
  "9310": " pursue",
  "9311": " helpful",
  "9312": " Greece",
  "9313": "vernment",
  "9314": "theless",
  "9315": "olds",
  "9316": "atar",
  "9317": "akh",
  "9318": " wider",
  "9319": " outrage",
  "9320": " innocent",
  "9321": " guards",
  "9322": " creatures",
  "9323": " Kong",
  "9324": " Bon",
  "9325": " proposals",
  "9326": " newsletter",
  "9327": " diseases",
  "9328": " Mill",
  "9329": " MORE",
  "9330": " Beijing",
  "9331": " Ark",
  "9332": " 2020",
  "9333": "aware",
  "9334": " smartphone",
  "9335": " render",
  "9336": " conservatives",
  "9337": " compare",
  "9338": " Dutch",
  "9339": " veterans",
  "9340": " actively",
  "9341": " Common",
  "9342": "irlf",
  "9343": "ials",
  "9344": "bow",
  "9345": " survival",
  "9346": " migrants",
  "9347": " demonstrate",
  "9348": " demanding",
  "9349": " autonom",
  "9350": " Ak",
  "9351": " rooms",
  "9352": " reverse",
  "9353": " arguing",
  "9354": " appointed",
  "9355": " affordable",
  "9356": " Nev",
  "9357": " Low",
  "9358": "through",
  "9359": " unpre",
  "9360": " labour",
  "9361": " kilomet",
  "9362": " brown",
  "9363": "rik",
  "9364": "igenous",
  "9365": " recall",
  "9366": " Lewis",
  "9367": "omes",
  "9368": "irlfriend",
  "9369": "Reuters",
  "9370": " soil",
  "9371": " domain",
  "9372": "itary",
  "9373": "eals",
  "9374": "aved",
  "9375": " hire",
  "9376": "ï½",
  "9377": "Christ",
  "9378": " questioned",
  "9379": " muscle",
  "9380": " anniversary",
  "9381": "izer",
  "9382": " rush",
  "9383": " picks",
  "9384": " forecast",
  "9385": "held",
  "9386": " thorough",
  "9387": " tens",
  "9388": " investigations",
  "9389": " dying",
  "9390": " cro",
  "9391": " Indiana",
  "9392": "usalem",
  "9393": "archy",
  "9394": "El",
  "9395": " memo",
  "9396": "Ñ",
  "9397": " trillion",
  "9398": " testimony",
  "9399": " eggs",
  "9400": " deserve",
  "9401": " Ross",
  "9402": " Meanwhile",
  "9403": " Gard",
  "9404": "market",
  "9405": " prosecutors",
  "9406": " lux",
  "9407": " Thompson",
  "9408": "mony",
  "9409": "GA",
  "9410": " ages",
  "9411": " Libya",
  "9412": " Iranian",
  "9413": " Crime",
  "9414": " 57",
  "9415": " acid",
  "9416": " AI",
  "9417": "orious",
  "9418": " okay",
  "9419": " arrival",
  "9420": " Tok",
  "9421": "ultane",
  "9422": " phenomenon",
  "9423": " meaningful",
  "9424": " exit",
  "9425": " Sab",
  "9426": " Marine",
  "9427": " Mun",
  "9428": " Engine",
  "9429": "ecutive",
  "9430": "bridge",
  "9431": " releases",
  "9432": " Form",
  "9433": " wounded",
  "9434": " wine",
  "9435": " wedd",
  "9436": " arbit",
  "9437": " Intel",
  "9438": " Among",
  "9439": "ois",
  "9440": " retirement",
  "9441": " loose",
  "9442": " ans",
  "9443": "ederation",
  "9444": " subsc",
  "9445": " signature",
  "9446": " Ten",
  "9447": " Hur",
  "9448": " Cole",
  "9449": " stability",
  "9450": " classified",
  "9451": " cance",
  "9452": "rection",
  "9453": "orship",
  "9454": " targeting",
  "9455": " dust",
  "9456": " Empire",
  "9457": "ocolate",
  "9458": "Story",
  "9459": " spell",
  "9460": " Price",
  "9461": " Mrs",
  "9462": " Graham",
  "9463": "84",
  "9464": " stem",
  "9465": " pointing",
  "9466": " broader",
  "9467": "ylum",
  "9468": "eness",
  "9469": " los",
  "9470": " Set",
  "9471": " Base",
  "9472": "Click",
  "9473": " openly",
  "9474": " deny",
  "9475": " Morgan",
  "9476": "berry",
  "9477": "mers",
  "9478": "Are",
  "9479": " transit",
  "9480": " mini",
  "9481": " buck",
  "9482": " bottle",
  "9483": "ethe",
  "9484": "Sim",
  "9485": " hal",
  "9486": "lla",
  "9487": "ancer",
  "9488": "93",
  "9489": " gif",
  "9490": " collaps",
  "9491": " butter",
  "9492": " abilities",
  "9493": " Hon",
  "9494": "minute",
  "9495": "lined",
  "9496": " settled",
  "9497": " Galaxy",
  "9498": "opyright",
  "9499": "mAh",
  "9500": "FA",
  "9501": " tremend",
  "9502": " passage",
  "9503": " organic",
  "9504": " greatly",
  "9505": " designs",
  "9506": " Fal",
  "9507": " satellite",
  "9508": " requested",
  "9509": " presidency",
  "9510": " persu",
  "9511": " margin",
  "9512": " Fall",
  "9513": " 54",
  "9514": "olves",
  "9515": "PM",
  "9516": " patch",
  "9517": " fool",
  "9518": " Chelsea",
  "9519": "iamond",
  "9520": "athon",
  "9521": " generations",
  "9522": " flags",
  "9523": " Yan",
  "9524": "ela",
  "9525": "Red",
  "9526": " dump",
  "9527": " Toy",
  "9528": " Silver",
  "9529": " Mach",
  "9530": " whereas",
  "9531": " struggled",
  "9532": " donations",
  "9533": " defending",
  "9534": "portation",
  "9535": " scope",
  "9536": " lad",
  "9537": " knife",
  "9538": " dad",
  "9539": " criteria",
  "9540": " comprehensive",
  "9541": " amendment",
  "9542": " Boe",
  "9543": "cedented",
  "9544": "Step",
  "9545": "94",
  "9546": " shadow",
  "9547": " hypothes",
  "9548": "ishop",
  "9549": "conf",
  "9550": "abies",
  "9551": " upload",
  "9552": " gig",
  "9553": "Ð²",
  "9554": "esty",
  "9555": " wanting",
  "9556": " shirt",
  "9557": " savings",
  "9558": " exha",
  "9559": " Management",
  "9560": "enter",
  "9561": "TE",
  "9562": " hosp",
  "9563": " coc",
  "9564": " breath",
  "9565": " WH",
  "9566": " Deb",
  "9567": "igious",
  "9568": " rocket",
  "9569": " persons",
  "9570": " expanding",
  "9571": " enthusi",
  "9572": " childhood",
  "9573": " architecture",
  "9574": " Tele",
  "9575": " Clark",
  "9576": " judgment",
  "9577": " assumed",
  "9578": " Marx",
  "9579": "rior",
  "9580": "Dem",
  "9581": " rebels",
  "9582": " genre",
  "9583": "omed",
  "9584": "ingers",
  "9585": " missions",
  "9586": " bowl",
  "9587": " borders",
  "9588": "author",
  "9589": "ATCH",
  "9590": " Sa",
  "9591": " rear",
  "9592": " protein",
  "9593": " alarm",
  "9594": " Vice",
  "9595": "ilation",
  "9596": "gered",
  "9597": "gage",
  "9598": "acket",
  "9599": " substance",
  "9600": " formation",
  "9601": " Leon",
  "9602": "Ñ",
  "9603": "ennis",
  "9604": " superior",
  "9605": " inches",
  "9606": " Link",
  "9607": " Iron",
  "9608": "aria",
  "9609": " staying",
  "9610": " stere",
  "9611": " provision",
  "9612": " producers",
  "9613": " capitalism",
  "9614": " aer",
  "9615": " Andre",
  "9616": "ogy",
  "9617": "eh",
  "9618": " â",
  "9619": " ease",
  "9620": " Burn",
  "9621": "ika",
  "9622": "BM",
  "9623": " titled",
  "9624": " stepped",
  "9625": " drives",
  "9626": " consensus",
  "9627": " Alexander",
  "9628": "Â·",
  "9629": "92",
  "9630": " smile",
  "9631": " rounds",
  "9632": " gross",
  "9633": " coinc",
  "9634": " clothing",
  "9635": " banking",
  "9636": " Maryland",
  "9637": "***",
  "9638": " therapy",
  "9639": " hopefully",
  "9640": " gent",
  "9641": " competing",
  "9642": " Liberal",
  "9643": " Jerusalem",
  "9644": "mic",
  "9645": "bits",
  "9646": "SU",
  "9647": " vig",
  "9648": " striking",
  "9649": " lunch",
  "9650": " backing",
  "9651": "ses",
  "9652": "Watch",
  "9653": " sed",
  "9654": " preparing",
  "9655": " attractive",
  "9656": "utiny",
  "9657": "afe",
  "9658": " vessel",
  "9659": " toxic",
  "9660": " membership",
  "9661": " awarded",
  "9662": "even",
  "9663": "assy",
  "9664": " burning",
  "9665": " Library",
  "9666": " Barb",
  "9667": "instein",
  "9668": "aders",
  "9669": "OK",
  "9670": "ERE",
  "9671": " remarkable",
  "9672": " abroad",
  "9673": "ouri",
  "9674": " killer",
  "9675": " fate",
  "9676": " Governor",
  "9677": "oret",
  "9678": "const",
  "9679": "bing",
  "9680": "after",
  "9681": " YOU",
  "9682": " Medicare",
  "9683": " Harvard",
  "9684": "thood",
  "9685": " tables",
  "9686": " rescue",
  "9687": " answered",
  "9688": " Aud",
  "9689": "roph",
  "9690": "lando",
  "9691": "itol",
  "9692": " reveals",
  "9693": " horr",
  "9694": " fundra",
  "9695": " charity",
  "9696": " anxiety",
  "9697": " Benn",
  "9698": " 120",
  "9699": " );",
  "9700": " discussing",
  "9701": " Ted",
  "9702": " Priv",
  "9703": " Mess",
  "9704": " 95",
  "9705": "asury",
  "9706": " unfair",
  "9707": " unexpected",
  "9708": " spectrum",
  "9709": " graduate",
  "9710": " followers",
  "9711": " cig",
  "9712": " Six",
  "9713": " Eff",
  "9714": "fol",
  "9715": " nic",
  "9716": " gal",
  "9717": " bread",
  "9718": " Hold",
  "9719": "child",
  "9720": " strategies",
  "9721": " Son",
  "9722": " MLS",
  "9723": "ikh",
  "9724": "Comp",
  "9725": " repeat",
  "9726": " Station",
  "9727": " Iv",
  "9728": " 56",
  "9729": "iffs",
  "9730": "Google",
  "9731": " obsc",
  "9732": " Tennessee",
  "9733": "test",
  "9734": "aration",
  "9735": " underlying",
  "9736": " eligible",
  "9737": " Assembly",
  "9738": "NBC",
  "9739": " assass",
  "9740": " Hop",
  "9741": " Capital",
  "9742": " Credit",
  "9743": " Berlin",
  "9744": "erg",
  "9745": "aver",
  "9746": " representatives",
  "9747": " kitchen",
  "9748": " distingu",
  "9749": " consideration",
  "9750": " comics",
  "9751": " Tech",
  "9752": " spots",
  "9753": " inspect",
  "9754": " info",
  "9755": " tons",
  "9756": " riding",
  "9757": " psychiat",
  "9758": " manufacturers",
  "9759": " Sean",
  "9760": " Exper",
  "9761": " ).",
  "9762": "some",
  "9763": "ormal",
  "9764": "izza",
  "9765": "Ke",
  "9766": " pron",
  "9767": " enhance",
  "9768": " dish",
  "9769": " ceremony",
  "9770": " PD",
  "9771": "â â ",
  "9772": "sub",
  "9773": "asty",
  "9774": " calm",
  "9775": " Through",
  "9776": " Ros",
  "9777": " Pant",
  "9778": " vend",
  "9779": " tempor",
  "9780": " analyst",
  "9781": " aims",
  "9782": " studying",
  "9783": " legislative",
  "9784": " implications",
  "9785": " everyday",
  "9786": " clinical",
  "9787": " Store",
  "9788": "brid",
  "9789": "82",
  "9790": "71",
  "9791": " Person",
  "9792": "vertisements",
  "9793": "race",
  "9794": " tut",
  "9795": " parad",
  "9796": " intim",
  "9797": " executives",
  "9798": " Lt",
  "9799": " Lions",
  "9800": " Gh",
  "9801": " Elizabeth",
  "9802": "igate",
  "9803": "TR",
  "9804": "CO",
  "9805": " cognitive",
  "9806": " chest",
  "9807": " Prince",
  "9808": " creature",
  "9809": "player",
  "9810": "party",
  "9811": "omy",
  "9812": "ctic",
  "9813": "bury",
  "9814": "alysis",
  "9815": " stance",
  "9816": " simultane",
  "9817": " possess",
  "9818": " nose",
  "9819": " compat",
  "9820": " Dal",
  "9821": "cest",
  "9822": " tired",
  "9823": " pharm",
  "9824": " nerv",
  "9825": " museum",
  "9826": " employers",
  "9827": " Jere",
  "9828": "onder",
  "9829": "dy",
  "9830": " harassment",
  "9831": " cooperation",
  "9832": " Run",
  "9833": " !",
  "9834": "yes",
  "9835": "elf",
  "9836": "650",
  "9837": " quit",
  "9838": " lineup",
  "9839": " centuries",
  "9840": " execution",
  "9841": "tenance",
  "9842": "ailed",
  "9843": " violations",
  "9844": " variable",
  "9845": " promoting",
  "9846": " collaboration",
  "9847": " chicken",
  "9848": " Have",
  "9849": " journalism",
  "9850": " errors",
  "9851": " cream",
  "9852": " bullet",
  "9853": " beating",
  "9854": " Antonio",
  "9855": " psychological",
  "9856": " les",
  "9857": " Bal",
  "9858": "oting",
  "9859": "ocial",
  "9860": "amous",
  "9861": " Edward",
  "9862": "elle",
  "9863": "alties",
  "9864": "aga",
  "9865": " interaction",
  "9866": " facilit",
  "9867": " contribution",
  "9868": " Represent",
  "9869": " Gil",
  "9870": " sections",
  "9871": " pros",
  "9872": " preferred",
  "9873": " dispute",
  "9874": " Adv",
  "9875": "rac",
  "9876": "mind",
  "9877": "affe",
  "9878": " pa",
  "9879": " fossil",
  "9880": " Sweden",
  "9881": " Hong",
  "9882": "umble",
  "9883": "rock",
  "9884": "raig",
  "9885": "press",
  "9886": "iture",
  "9887": "ded",
  "9888": " physically",
  "9889": " dominant",
  "9890": " civilian",
  "9891": " burden",
  "9892": " Olympic",
  "9893": " Jean",
  "9894": "alia",
  "9895": " suspects",
  "9896": " promising",
  "9897": " principal",
  "9898": " mit",
  "9899": " damaged",
  "9900": " Som",
  "9901": " Mississippi",
  "9902": " Instagram",
  "9903": " EC",
  "9904": "utter",
  "9905": " perceived",
  "9906": " difficulty",
  "9907": " categories",
  "9908": " Leader",
  "9909": "icipal",
  "9910": " surviv",
  "9911": " fet",
  "9912": " Batman",
  "9913": " sheet",
  "9914": " reforms",
  "9915": " memories",
  "9916": " Palestinians",
  "9917": " Award",
  "9918": "isa",
  "9919": " managing",
  "9920": " demanded",
  "9921": " Tes",
  "9922": " Barn",
  "9923": " investments",
  "9924": " explaining",
  "9925": " accessible",
  "9926": "week",
  "9927": "licop",
  "9928": "inth",
  "9929": "dated",
  "9930": "Act",
  "9931": " instructions",
  "9932": " indu",
  "9933": " Bruce",
  "9934": " 61",
  "9935": "walk",
  "9936": "Fi",
  "9937": " stored",
  "9938": " picking",
  "9939": "ierce",
  "9940": " theories",
  "9941": " reserved",
  "9942": " overseas",
  "9943": " mole",
  "9944": " ideology",
  "9945": " fights",
  "9946": " delic",
  "9947": " Orig",
  "9948": " Da",
  "9949": "estyle",
  "9950": "--------------------------------",
  "9951": " hosted",
  "9952": " Wales",
  "9953": " Pentagon",
  "9954": " pill",
  "9955": " grade",
  "9956": " Story",
  "9957": " Hal",
  "9958": "odge",
  "9959": " regulatory",
  "9960": " pm",
  "9961": " desert",
  "9962": "security",
  "9963": "adesh",
  "9964": "Mich",
  "9965": " undert",
  "9966": " mood",
  "9967": " emerging",
  "9968": " Harper",
  "9969": "endar",
  "9970": " procedure",
  "9971": " Email",
  "9972": " _",
  "9973": "(\"",
  "9974": " seed",
  "9975": " Steam",
  "9976": " Hitler",
  "9977": "icity",
  "9978": "acts",
  "9979": "ova",
  "9980": "hard",
  "9981": "emic",
  "9982": " lapt",
  "9983": " Robinson",
  "9984": " Rather",
  "9985": "necess",
  "9986": " sits",
  "9987": " landing",
  "9988": " lens",
  "9989": " helicop",
  "9990": " Delhi",
  "9991": " 1950",
  "9992": "wed",
  "9993": "bourne",
  "9994": " outlets",
  "9995": " indicates",
  "9996": "Ms",
  "9997": " ridiculous",
  "9998": " Section",
  "9999": "ixed",
  "10000": "erent",
  "10001": " timing",
  "10002": " opens",
  "10003": " guidelines",
  "10004": "odox",
  "10005": " displayed",
  "10006": " birthday",
  "10007": " agreements",
  "10008": "watch",
  "10009": "mented",
  "10010": "View",
  "10011": "Earlier",
  "10012": " pulling",
  "10013": " frequent",
  "10014": " crus",
  "10015": " convince",
  "10016": " Video",
  "10017": " SE",
  "10018": " Front",
  "10019": "throp",
  "10020": "ista",
  "10021": " racing",
  "10022": " militants",
  "10023": " loves",
  "10024": " intr",
  "10025": " gate",
  "10026": " cabinet",
  "10027": " Therefore",
  "10028": "urrently",
  "10029": "lude",
  "10030": "achel",
  "10031": " occurs",
  "10032": " fatal",
  "10033": " contrad",
  "10034": " Indust",
  "10035": "dr",
  "10036": "Cal",
  "10037": " Rangers",
  "10038": "Ñ",
  "10039": "sect",
  "10040": "rowing",
  "10041": "pha",
  "10042": " pipeline",
  "10043": " glad",
  "10044": " forum",
  "10045": " Short",
  "10046": " Line",
  "10047": " Bol",
  "10048": " Alb",
  "10049": "Source",
  "10050": "FO",
  "10051": " roots",
  "10052": " beach",
  "10053": " API",
  "10054": "Bel",
  "10055": " inequality",
  "10056": " Stew",
  "10057": " Sure",
  "10058": " vert",
  "10059": "PC",
  "10060": " shield",
  "10061": " discount",
  "10062": " couples",
  "10063": " cheaper",
  "10064": " Pok",
  "10065": "uj",
  "10066": "acher",
  "10067": " unprecedented",
  "10068": " gest",
  "10069": " dialogue",
  "10070": " Wi",
  "10071": "ambling",
  "10072": "->",
  "10073": " summit",
  "10074": " pollution",
  "10075": " deployed",
  "10076": " Sav",
  "10077": " Affairs",
  "10078": " 72",
  "10079": "oca",
  "10080": "kee",
  "10081": "Mark",
  "10082": " sixth",
  "10083": " rhetoric",
  "10084": " jer",
  "10085": " gathering",
  "10086": " elder",
  "10087": " certific",
  "10088": "alid",
  "10089": " nurs",
  "10090": " counterpart",
  "10091": " correctly",
  "10092": " Hand",
  "10093": " tab",
  "10094": " posting",
  "10095": " deadline",
  "10096": " citing",
  "10097": " Prov",
  "10098": "opp",
  "10099": "Comm",
  "10100": " talented",
  "10101": " sovere",
  "10102": " lifetime",
  "10103": " keys",
  "10104": " contacted",
  "10105": " bias",
  "10106": " acknowledge",
  "10107": " Eth",
  "10108": "olar",
  "10109": "250",
  "10110": " voices",
  "10111": " signals",
  "10112": " permit",
  "10113": " existed",
  "10114": " custody",
  "10115": "cre",
  "10116": " mos",
  "10117": " Gary",
  "10118": " Duke",
  "10119": " 59",
  "10120": " publishing",
  "10121": " precisely",
  "10122": " educational",
  "10123": " correl",
  "10124": " convert",
  "10125": " Whether",
  "10126": " Murray",
  "10127": " relation",
  "10128": " coup",
  "10129": "wa",
  "10130": "reek",
  "10131": "iac",
  "10132": "asant",
  "10133": " setup",
  "10134": " propaganda",
  "10135": " lessons",
  "10136": " institution",
  "10137": " bankrupt",
  "10138": "holders",
  "10139": "atively",
  "10140": " pocket",
  "10141": " impression",
  "10142": " engineers",
  "10143": " Michel",
  "10144": " Captain",
  "10145": "rend",
  "10146": " managers",
  "10147": " knock",
  "10148": " foods",
  "10149": " Budd",
  "10150": "2014",
  "10151": " recalled",
  "10152": " concepts",
  "10153": " Sheriff",
  "10154": "being",
  "10155": " prompted",
  "10156": " participation",
  "10157": " oxy",
  "10158": " frequency",
  "10159": " emotions",
  "10160": " badly",
  "10161": " Hamilton",
  "10162": " recre",
  "10163": " legally",
  "10164": " landed",
  "10165": " interf",
  "10166": " bacter",
  "10167": " 250",
  "10168": "olving",
  "10169": "hatt",
  "10170": "break",
  "10171": " presentation",
  "10172": " colour",
  "10173": " artificial",
  "10174": " 58",
  "10175": " ê",
  "10176": "oli",
  "10177": "awks",
  "10178": "Thanks",
  "10179": " utter",
  "10180": " Main",
  "10181": " Convention",
  "10182": "books",
  "10183": "Mus",
  "10184": " perception",
  "10185": " defeated",
  "10186": " caps",
  "10187": " boxes",
  "10188": " blank",
  "10189": " Lam",
  "10190": " 85",
  "10191": "oz",
  "10192": "itudes",
  "10193": "agger",
  "10194": " removal",
  "10195": " dating",
  "10196": " Psych",
  "10197": "will",
  "10198": "uz",
  "10199": "arre",
  "10200": "Dis",
  "10201": " iter",
  "10202": " Yemen",
  "10203": "Yeah",
  "10204": " shell",
  "10205": " industries",
  "10206": " Bloom",
  "10207": "js",
  "10208": " overcome",
  "10209": " occasional",
  "10210": " ML",
  "10211": " Louisiana",
  "10212": " teammates",
  "10213": " stops",
  "10214": " physics",
  "10215": " lane",
  "10216": " insight",
  "10217": " extraordinary",
  "10218": " echo",
  "10219": " constitu",
  "10220": " asylum",
  "10221": " Medicaid",
  "10222": " Kings",
  "10223": " Children",
  "10224": " 1992",
  "10225": "early",
  "10226": "State",
  "10227": " statist",
  "10228": " searching",
  "10229": " girlfriend",
  "10230": " functional",
  "10231": " brutal",
  "10232": "iev",
  "10233": "arget",
  "10234": " barg",
  "10235": " bands",
  "10236": " traveling",
  "10237": " torture",
  "10238": " sexually",
  "10239": " Keep",
  "10240": "cal",
  "10241": "UL",
  "10242": " carries",
  "10243": " Mit",
  "10244": " Five",
  "10245": "sburgh",
  "10246": "Gu",
  "10247": " requiring",
  "10248": " interviewed",
  "10249": " guests",
  "10250": " addresses",
  "10251": " TR",
  "10252": " Ever",
  "10253": "has",
  "10254": " unve",
  "10255": " punishment",
  "10256": " magnet",
  "10257": " Authority",
  "10258": "umph",
  "10259": "rows",
[...]
